<pad>	0
</s>	0
<unk>	0
<s>	0
in	-0
▁a	-1
▁t	-2
er	-3
on	-4
en	-5
he	-6
ti	-7
es	-8
or	-9
al	-10
ed	-11
▁the	-12
▁in	-13
nd	-14
▁s	-15
ar	-16
is	-17
▁c	-18
▁o	-19
ing	-20
an	-21
ic	-22
at	-23
▁p	-24
it	-25
▁A	-26
▁w	-27
el	-28
▁f	-29
▁and	-30
▁of	-31
ro	-32
tion	-33
▁b	-34
re	-35
ce	-36
as	-37
▁m	-38
▁to	-39
▁d	-40
▁I	-41
le	-42
▁S	-43
ent	-44
▁T	-45
om	-46
ch	-47
ou	-48
20	-49
ig	-50
st	-51
▁h	-52
▁C	-53
ation	-54
▁20	-55
▁l	-56
ence	-57
fic	-58
▁M	-59
ial	-60
▁In	-61
ec	-62
▁th	-63
il	-64
ers	-65
ol	-66
ell	-67
ra	-68
▁is	-69
▁e	-70
ut	-71
▁on	-72
▁P	-73
▁(	-74
us	-75
▁for	-76
tific	-77
ur	-78
▁re	-79
▁int	-80
ve	-81
▁n	-82
ellig	-83
▁The	-84
▁B	-85
im	-86
▁r	-87
id	-88
▁com	-89
tificial	-90
elligence	-91
▁g	-92
▁R	-93
▁pro	-94
▁as	-95
rtificial	-96
et	-97
ir	-98
ly	-99
am	-100
▁an	-101
▁AI	-102
▁E	-103
em	-104
▁H	-105
ot	-106
▁D	-107
ith	-108
og	-109
ess	-110
ad	-111
ow	-112
▁that	-113
▁con	-114
ct	-115
▁1	-116
▁al	-117
▁F	-118
▁comp	-119
um	-120
▁with	-121
ci	-122
▁was	-123
ist	-124
▁U	-125
▁G	-126
ab	-127
▁W	-128
od	-129
iv	-130
▁be	-131
▁by	-132
ear	-133
th	-134
▁J	-135
▁O	-136
un	-137
ay	-138
▁wh	-139
AI	-140
▁L	-141
▁"	-142
ag	-143
pp	-144
ul	-145
ter	-146
▁st	-147
ver	-148
▁it	-149
op	-150
▁N	-151
ity	-152
for	-153
▁intelligence	-154
ud	-155
ment	-156
ri	-157
▁v	-158
ate	-159
fer	-160
os	-161
▁201	-162
▁su	-163
ion	-164
ts	-165
▁artificial	-166
tic	-167
▁de	-168
▁ex	-169
▁at	-170
ine	-171
rom	-172
ac	-173
▁202	-174
ks	-175
▁le	-176
▁or	-177
▁from	-178
qu	-179
enc	-180
▁res	-181
▁Un	-182
ech	-183
ap	-184
ard	-185
est	-186
▁us	-187
▁ac	-188
and	-189
ia	-190
ld	-191
ach	-192
und	-193
ew	-194
ect	-195
earch	-196
ure	-197
tive	-198
pl	-199
ies	-200
so	-201
▁Re	-202
oc	-203
vel	-204
▁Int	-205
▁Artificial	-206
ated	-207
▁St	-208
▁he	-209
ber	-210
yst	-211
▁wor	-212
ences	-213
ous	-214
ystem	-215
ak	-216
ition	-217
▁mod	-218
▁Intelligence	-219
▁ch	-220
ich	-221
our	-222
▁en	-223
form	-224
ning	-225
echn	-226
olog	-227
ok	-228
ations	-229
any	-230
art	-231
ge	-232
ain	-233
▁also	-234
▁19	-235
▁pr	-236
ound	-237
ill	-238
▁pl	-239
▁has	-240
iz	-241
ub	-242
ust	-243
▁model	-244
▁system	-245
per	-246
ary	-247
▁app	-248
▁inc	-249
ee	-250
ere	-251
ferences	-252
if	-253
ide	-254
end	-255
▁its	-256
▁Ch	-257
age	-258
nal	-259
ory	-260
ates	-261
▁are	-262
vi	-263
ong	-264
▁research	-265
▁K	-266
ally	-267
ased	-268
ort	-269
▁ad	-270
ivers	-271
▁which	-272
ele	-273
▁200	-274
▁References	-275
se	-276
oun	-277
ance	-278
ik	-279
▁V	-280
du	-281
eb	-282
lud	-283
able	-284
ited	-285
▁sci	-286
velop	-287
▁cont	-288
ant	-289
▁lear	-290
▁im	-291
ener	-292
echnolog	-293
gh	-294
igh	-295
▁ar	-296
▁includ	-297
up	-298
ace	-299
ore	-300
enti	-301
▁company	-302
ms	-303
▁2	-304
hed	-305
ational	-306
ost	-307
▁Y	-308
all	-309
ents	-310
uman	-311
),	-312
ang	-313
lic	-314
▁Ex	-315
▁ag	-316
▁develop	-317
ave	-318
ian	-319
▁It	-320
▁Th	-321
tions	-322
ex	-323
▁bo	-324
ical	-325
ign	-326
▁comput	-327
▁learning	-328
▁ab	-329
▁ro	-330
ru	-331
▁his	-332
▁can	-333
ame	-334
ass	-335
gra	-336
▁dis	-337
▁United	-338
).	-339
pr	-340
▁des	-341
ep	-342
ip	-343
▁j	-344
irst	-345
iversity	-346
are	-347
cess	-348
▁not	-349
▁3	-350
her	-351
▁inter	-352
00	-353
ob	-354
ry	-355
iti	-356
mer	-357
▁He	-358
over	-359
ther	-360
lis	-361
▁ser	-362
ov	-363
ble	-364
ord	-365
ple	-366
▁ph	-367
▁sp	-368
▁human	-369
▁y	-370
▁un	-371
▁gener	-372
ced	-373
rain	-374
▁Pro	-375
▁such	-376
▁University	-377
ata	-378
king	-379
▁k	-380
out	-381
tit	-382
ould	-383
▁lin	-384
▁pub	-385
achine	-386
▁found	-387
▁per	-388
▁Al	-389
▁rele	-390
cep	-391
ural	-392
▁have	-393
av	-394
ite	-395
ome	-396
angu	-397
▁und	-398
ph	-399
act	-400
ari	-401
ject	-402
".	-403
CAI	-404
ie	-405
ire	-406
rac	-407
▁cons	-408
ors	-409
ran	-410
▁cre	-411
▁first	-412
▁systems	-413
ue	-414
▁-	-415
ics	-416
onom	-417
ision	-418
▁used	-419
ten	-420
▁ed	-421
▁sh	-422
etw	-423
oin	-424
▁aut	-425
▁rec	-426
ating	-427
ction	-428
ternal	-429
19	-430
pen	-431
rib	-432
▁cl	-433
▁been	-434
▁langu	-435
▁States	-436
▁technolog	-437
gan	-438
▁qu	-439
gram	-440
▁inv	-441
▁models	-442
ack	-443
▁la	-444
esent	-445
▁under	-446
ast	-447
ime	-448
ind	-449
ogn	-450
ugh	-451
▁Com	-452
▁book	-453
AAI	-454
iel	-455
ive	-456
low	-457
ff	-458
now	-459
ork	-460
stit	-461
ward	-462
▁Mar	-463
▁links	-464
ys	-465
▁ev	-466
▁Sci	-467
illion	-468
▁External	-469
edia	-470
ute	-471
▁one	-472
ext	-473
ever	-474
ight	-475
ings	-476
▁199	-477
▁Con	-478
▁list	-479
▁language	-480
4,	-481
▁Ac	-482
ater	-483
ative	-484
▁data	-485
▁work	-486
▁produ	-487
▁machine	-488
3,	-489
eg	-490
ft	-491
tim	-492
▁De	-493
tern	-494
▁2021	-495
▁prov	-496
bum	-497
hip	-498
▁An	-499
ures	-500
▁(20	-501
▁over	-502
▁about	-503
▁their	-504
."	-505
ike	-506
ual	-507
▁Go	-508
▁Pl	-509
ress	-510
tics	-511
bo	-512
ile	-513
▁co	-514
ffic	-515
view	-516
▁Gro	-517
▁New	-518
▁Res	-519
▁pre	-520
▁comm	-521
lished	-522
stitute	-523
ail	-524
ely	-525
ilm	-526
rit	-527
▁em	-528
ines	-529
▁lar	-530
▁stud	-531
▁were	-532
▁tw	-533
▁See	-534
tical	-535
▁other	-536
▁program	-537
formation	-538
yp	-539
▁Ph	-540
▁so	-541
▁ind	-542
▁par	-543
▁this	-544
▁world	-545
ha	-546
ase	-547
ean	-548
ron	-549
▁On	-550
▁ne	-551
ower	-552
▁acc	-553
▁nat	-554
rough	-555
▁laun	-556
▁play	-557
▁science	-558
▁computer	-559
▁including	-560
ake	-561
ath	-562
ved	-563
ount	-564
▁App	-565
▁ann	-566
▁bot	-567
▁AAAI	-568
▁This	-569
▁where	-570
▁process	-571
ree	-572
▁As	-573
▁ob	-574
ogle	-575
▁eng	-576
▁sol	-577
▁disc	-578
▁into	-579
ey	-580
aus	-581
JCAI	-582
ield	-583
ital	-584
usic	-585
▁add	-586
▁dec	-587
▁sub	-588
▁use	-589
▁lead	-590
▁agent	-591
io	-592
ll	-593
-20	-594
ied	-595
orn	-596
ris	-597
tiv	-598
port	-599
▁but	-600
▁web	-601
▁know	-602
▁more	-603
▁Offic	-604
▁album	-605
ark	-606
ted	-607
vic	-608
▁Wh	-609
▁do	-610
ages	-611
edic	-612
mber	-613
ruct	-614
ular	-615
▁cap	-616
▁col	-617
▁had	-618
▁sec	-619
▁two	-620
uring	-621
▁time	-622
▁IJCAI	-623
▁based	-624
entific	-625
ference	-626
▁Google	-627
ma	-628
▁4	-629
put	-630
▁sa	-631
ilos	-632
▁anal	-633
ilosop	-634
▁exper	-635
▁Research	-636
anc	-637
▁fe	-638
▁go	-639
fter	-640
site	-641
pport	-642
▁Technolog	-643
▁development	-644
een	-645
eng	-646
ond	-647
pos	-648
tis	-649
ton	-650
▁Jo	-651
ired	-652
rans	-653
▁new	-654
▁out	-655
round	-656
▁2020	-657
▁2022	-658
atform	-659
istory	-660
ization	-661
▁released	-662
lu	-663
ss	-664
▁Sp	-665
▁bi	-666
▁sc	-667
cept	-668
line	-669
ocus	-670
ware	-671
erson	-672
iness	-673
▁exam	-674
▁game	-675
▁sing	-676
ential	-677
▁design	-678
▁proble	-679
olic	-680
▁mem	-681
▁who	-682
▁Science	-683
ty	-684
ons	-685
ove	-686
abil	-687
tain	-688
▁198	-689
▁bec	-690
irect	-691
▁desc	-692
▁expl	-693
▁like	-694
ournal	-695
als	-696
ann	-697
anu	-698
ens	-699
eop	-700
ife	-701
isc	-702
ise	-703
jec	-704
pro	-705
urr	-706
uss	-707
▁Bl	-708
▁En	-709
apan	-710
ific	-711
igin	-712
play	-713
ting	-714
▁adv	-715
▁pos	-716
▁rel	-717
▁resp	-718
▁Japan	-719
▁appro	-720
▁train	-721
▁announ	-722
▁founded	-723
▁natural	-724
▁through	-725
▁published	-726
5,	-727
ib	-728
ug	-729
air	-730
alu	-731
elf	-732
hes	-733
tem	-734
▁el	-735
▁Air	-736
▁Wik	-737
▁how	-738
ities	-739
uture	-740
▁2017	-741
▁2018	-742
arious	-743
ording	-744
▁focus	-745
▁offic	-746
▁organ	-747
ilosoph	-748
▁support	-749
▁website	-750
lications	-751
▁information	-752
▁Z	-753
bot	-754
ecu	-755
ild	-756
led	-757
les	-758
lob	-759
ason	-760
ched	-761
ered	-762
ideo	-763
raph	-764
▁Cal	-765
▁all	-766
▁ass	-767
▁film	-768
▁mean	-769
▁year	-770
▁large	-771
ecutive	-772
▁comple	-773
▁series	-774
▁perform	-775
▁platform	-776
-1	-777
ky	-778
ze	-779
ays	-780
nam	-781
vir	-782
▁Ar	-783
▁Or	-784
fess	-785
ible	-786
eople	-787
ering	-788
overn	-789
viron	-790
▁part	-791
▁spec	-792
▁they	-793
ership	-794
▁field	-795
▁million	-796
vironment	-797
▁scientific	-798
uc	-799
199	-800
der	-801
erm	-802
eth	-803
ock	-804
▁Pr	-805
▁gu	-806
abor	-807
ames	-808
ince	-809
▁dif	-810
▁fol	-811
▁pap	-812
ocial	-813
▁2019	-814
▁Open	-815
▁Place	-816
present	-817
▁engine	-818
▁History	-819
▁Official	-820
▁announced	-821
▁technology	-822
▁Q	-823
fin	-824
hor	-825
row	-826
▁ma	-827
▁te	-828
meric	-829
▁netw	-830
▁oper	-831
▁well	-832
▁2024,	-833
▁being	-834
▁using	-835
▁would	-836
usiness	-837
▁follow	-838
▁reason	-839
ognition	-840
▁describ	-841
▁project	-842
▁launched	-843
ful	-844
get	-845
ims	-846
ina	-847
ish	-848
ric	-849
ized	-850
ober	-851
orks	-852
▁Can	-853
▁For	-854
▁mul	-855
aract	-856
stand	-857
ution	-858
▁real	-859
▁some	-860
▁text	-861
anuary	-862
entist	-863
etween	-864
fessor	-865
itions	-866
▁music	-867
▁trans	-868
▁Intern	-869
▁provid	-870
▁present	-871
",	-872
mb	-873
ne	-874
te	-875
ety	-876
ief	-877
old	-878
own	-879
une	-880
▁av	-881
▁ra	-882
iven	-883
ness	-884
ough	-885
▁War	-886
▁act	-887
▁may	-888
found	-889
lobal	-890
▁inst	-891
▁most	-892
▁open	-893
▁than	-894
▁them	-895
▁writ	-896
▁Group	-897
▁could	-898
▁techn	-899
▁Americ	-900
▁appear	-901
▁invest	-902
▁predic	-903
▁January	-904
▁between	-905
▁charact	-906
▁Technology	-907
▁technologies	-908
▁5	-909
ash	-910
ven	-911
▁Ad	-912
▁Sh	-913
▁up	-914
havi	-915
ived	-916
ract	-917
tici	-918
vers	-919
▁deb	-920
▁num	-921
▁tas	-922
aking	-923
▁2010	-924
▁acqu	-925
▁feat	-926
▁form	-927
ftware	-928
▁contro	-929
▁origin	-930
▁people	-931
▁social	-932
▁Institute	-933
aw	-934
hn	-935
oy	-936
ern	-937
its	-938
ode	-939
red	-940
the	-941
ases	-942
esid	-943
lish	-944
▁197	-945
▁Acc	-946
▁her	-947
▁pur	-948
▁sim	-949
▁sur	-950
alled	-951
cious	-952
inist	-953
▁caus	-954
▁prom	-955
▁after	-956
▁start	-957
▁video	-958
▁differ	-959
▁direct	-960
▁public	-961
▁character	-962
▁represent	-963
▁environment	-964
lp	-965
▁9	-966
ism	-967
man	-968
ose	-969
ult	-970
▁no	-971
oint	-972
rate	-973
▁Aut	-974
▁Dav	-975
▁Ind	-976
▁inf	-977
▁set	-978
antum	-979
ement	-980
▁2016	-981
▁Airi	-982
▁dist	-983
▁high	-984
▁team	-985
▁place	-986
ailable	-987
ructure	-988
▁future	-989
▁servic	-990
elligent	-991
▁created	-992
-0	-993
4.	-994
su	-995
sy	-996
▁'	-997
ins	-998
itt	-999
pec	-1000
rad	-1001
uro	-1002
▁Ab	-1003
▁Cl	-1004
▁Is	-1005
▁Sc	-1006
lect	-1007
▁Inc	-1008
▁She	-1009
▁ins	-1010
▁reg	-1011
areer	-1012
ently	-1013
power	-1014
▁Cent	-1015
▁York	-1016
▁fund	-1017
▁help	-1018
▁2021,	-1019
▁Canad	-1020
▁state	-1021
onomous	-1022
▁behavi	-1023
▁report	-1024
▁single	-1025
▁theory	-1026
ilosophy	-1027
▁general	-1028
▁include	-1029
▁journal	-1030
0.	-1031
ix	-1032
com	-1033
ese	-1034
ice	-1035
por	-1036
▁Em	-1037
arly	-1038
gest	-1039
land	-1040
▁Har	-1041
▁man	-1042
▁she	-1043
jects	-1044
ments	-1045
▁born	-1046
▁chat	-1047
▁what	-1048
▁will	-1049
▁elect	-1050
▁initi	-1051
▁known	-1052
▁meaning	-1053
▁problems	-1054
▁developed	-1055
▁scientist	-1056
▁applications	-1057
1,	-1058
ces	-1059
gor	-1060
nia	-1061
one	-1062
ret	-1063
uly	-1064
yle	-1065
▁Su	-1066
▁id	-1067
arth	-1068
ator	-1069
ebru	-1070
ency	-1071
ifor	-1072
ilit	-1073
omen	-1074
▁All	-1075
▁How	-1076
▁arg	-1077
▁you	-1078
ather	-1079
istic	-1080
itive	-1081
ource	-1082
▁both	-1083
▁curr	-1084
▁life	-1085
▁ques	-1086
▁rece	-1087
ctober	-1088
▁David	-1089
▁autom	-1090
▁class	-1091
▁later	-1092
▁polic	-1093
▁round	-1094
ifornia	-1095
▁called	-1096
▁compan	-1097
▁number	-1098
▁online	-1099
▁content	-1100
▁software	-1101
▁available	-1102
▁institute	-1103
..	-1104
▁6	-1105
eep	-1106
int	-1107
iqu	-1108
ner	-1109
ods	-1110
▁Ec	-1111
▁IS	-1112
▁Qu	-1113
▁bu	-1114
atam	-1115
ests	-1116
ying	-1117
▁dep	-1118
▁fun	-1119
▁ref	-1120
ended	-1121
eptem	-1122
ledge	-1123
▁(201	-1124
▁Card	-1125
▁Nove	-1126
▁prac	-1127
▁took	-1128
igital	-1129
▁2023,	-1130
▁Award	-1131
▁China	-1132
▁March	-1133
▁cover	-1134
▁multi	-1135
▁often	-1136
▁since	-1137
▁stand	-1138
▁commun	-1139
▁consid	-1140
▁govern	-1141
▁person	-1142
eptember	-1143
▁October	-1144
▁billion	-1145
▁November	-1146
▁decision	-1147
▁different	-1148
▁California	-1149
▁understand	-1150
PT	-1151
RI	-1152
gy	-1153
ale	-1154
inr	-1155
▁Be	-1156
▁se	-1157
▁tr	-1158
adem	-1159
ange	-1160
ists	-1161
orld	-1162
vely	-1163
▁Man	-1164
▁Mur	-1165
▁dem	-1166
▁eth	-1167
▁top	-1168
ticip	-1169
ually	-1170
▁2008	-1171
▁Aust	-1172
▁ECAI	-1173
▁June	-1174
▁make	-1175
▁memb	-1176
▁sign	-1177
fering	-1178
iction	-1179
ograph	-1180
▁2022,	-1181
▁Datam	-1182
▁tasks	-1183
ability	-1184
esident	-1185
plement	-1186
▁OpenAI	-1187
▁during	-1188
▁display	-1189
▁example	-1190
▁various	-1191
▁Dataminr	-1192
▁Japanese	-1193
▁training	-1194
▁conscious	-1195
▁reasoning	-1196
▁International	-1197
5.	-1198
AE	-1199
BN	-1200
ao	-1201
pa	-1202
lor	-1203
ont	-1204
udd	-1205
▁Le	-1206
▁Ne	-1207
▁Om	-1208
akes	-1209
fore	-1210
ised	-1211
▁100	-1212
▁Lab	-1213
▁May	-1214
▁San	-1215
▁bro	-1216
▁det	-1217
▁dom	-1218
▁eff	-1219
▁est	-1220
▁fin	-1221
▁ide	-1222
▁nam	-1223
based	-1224
ights	-1225
vious	-1226
▁(200	-1227
▁ISBN	-1228
▁John	-1229
▁each	-1230
▁educ	-1231
▁hand	-1232
▁only	-1233
▁tool	-1234
▁when	-1235
cember	-1236
gorith	-1237
tively	-1238
▁2017,	-1239
▁media	-1240
ebruary	-1241
▁Canada	-1242
▁Comput	-1243
▁agents	-1244
▁create	-1245
ognitive	-1246
▁control	-1247
▁September	-1248
11	-1249
wn	-1250
▁)	-1251
▁8	-1252
che	-1253
eek	-1254
ene	-1255
enn	-1256
ick	-1257
ink	-1258
rid	-1259
eman	-1260
inci	-1261
itor	-1262
neky	-1263
ples	-1264
very	-1265
▁Bri	-1266
▁Inf	-1267
▁any	-1268
▁led	-1269
▁pot	-1270
▁win	-1271
ental	-1272
izing	-1273
otion	-1274
style	-1275
▁bias	-1276
▁head	-1277
▁need	-1278
▁vers	-1279
econom	-1280
ipedia	-1281
▁artic	-1282
▁build	-1283
▁count	-1284
▁estab	-1285
▁works	-1286
agement	-1287
itional	-1288
▁Omneky	-1289
▁review	-1290
▁second	-1291
▁edition	-1292
▁provide	-1293
▁American	-1294
▁February	-1295
▁business	-1296
▁networks	-1297
▁Wikipedia	-1298
▁companies	-1299
▁conference	-1300
▁researchers	-1301
▁displaystyle	-1302
EO	-1303
ES	-1304
LM	-1305
ai	-1306
lo	-1307
amb	-1308
bin	-1309
ler	-1310
ote	-1311
ral	-1312
▁12	-1313
▁Im	-1314
▁So	-1315
▁Tr	-1316
▁am	-1317
ends	-1318
imes	-1319
ling	-1320
pril	-1321
soci	-1322
ured	-1323
ving	-1324
▁Aug	-1325
▁Ser	-1326
▁rem	-1327
▁ter	-1328
anced	-1329
oined	-1330
ories	-1331
▁July	-1332
▁Lear	-1333
▁List	-1334
▁held	-1335
▁main	-1336
▁many	-1337
▁meth	-1338
▁post	-1339
ically	-1340
utions	-1341
▁April	-1342
▁Gener	-1343
▁Gross	-1344
▁invol	-1345
▁order	-1346
▁sever	-1347
▁while	-1348
achines	-1349
ception	-1350
ilitary	-1351
▁August	-1352
▁Econom	-1353
▁within	-1354
▁chatbot	-1355
▁officer	-1356
▁version	-1357
▁working	-1358
powerment	-1359
▁Learning	-1360
▁acquired	-1361
▁algorith	-1362
▁includes	-1363
▁According	-1364
▁education	-1365
▁executive	-1366
▁following	-1367
▁professor	-1368
▁philosophy	-1369
▁intelligent	-1370
1.	-1371
of	-1372
▁,	-1373
ade	-1374
ank	-1375
erk	-1376
ily	-1377
iss	-1378
ize	-1379
▁10	-1380
ense	-1381
ners	-1382
onst	-1383
ords	-1384
ploy	-1385
rack	-1386
rize	-1387
ysis	-1388
▁CEO	-1389
▁Eng	-1390
▁Mod	-1391
▁Rob	-1392
▁Sch	-1393
▁Sim	-1394
▁UAE	-1395
▁flu	-1396
▁gra	-1397
▁key	-1398
▁own	-1399
▁sug	-1400
▁way	-1401
other	-1402
▁Best	-1403
▁Budd	-1404
▁Data	-1405
▁Deep	-1406
▁Warp	-1407
▁anim	-1408
▁coll	-1409
▁deep	-1410
▁phot	-1411
▁plan	-1412
▁prot	-1413
▁requ	-1414
▁said	-1415
▁valu	-1416
ending	-1417
▁Cardy	-1418
▁Found	-1419
▁award	-1420
▁broad	-1421
▁games	-1422
▁integ	-1423
▁these	-1424
lection	-1425
▁action	-1426
▁causal	-1427
▁former	-1428
▁global	-1429
▁images	-1430
▁joined	-1431
▁neural	-1432
▁policy	-1433
▁Machine	-1434
▁Project	-1435
▁concept	-1436
▁current	-1437
▁discuss	-1438
▁quantum	-1439
▁several	-1440
▁written	-1441
▁December	-1442
▁behavior	-1443
▁designed	-1444
▁received	-1445
▁implement	-1446
▁recognition	-1447
-2	-1448
IT	-1449
az	-1450
be	-1451
by	-1452
alc	-1453
arn	-1454
nov	-1455
til	-1456
ues	-1457
▁30	-1458
▁At	-1459
▁Ed	-1460
▁Se	-1461
▁US	-1462
▁bl	-1463
▁we	-1464
alth	-1465
ctor	-1466
eley	-1467
etts	-1468
hist	-1469
osed	-1470
▁Pol	-1471
▁Sec	-1472
▁cri	-1473
▁hyp	-1474
▁log	-1475
▁mat	-1476
▁mon	-1477
▁non	-1478
achus	-1479
alcul	-1480
ected	-1481
ender	-1482
ittee	-1483
urity	-1484
▁(199	-1485
▁2007	-1486
▁Mass	-1487
▁Shan	-1488
▁down	-1489
▁name	-1490
▁poss	-1491
▁sens	-1492
▁test	-1493
▁uses	-1494
vision	-1495
▁Murty	-1496
▁These	-1497
▁allow	-1498
▁analy	-1499
▁brain	-1500
▁paper	-1501
▁there	-1502
▁years	-1503
founder	-1504
▁System	-1505
▁assist	-1506
▁author	-1507
▁calcul	-1508
▁events	-1509
▁experi	-1510
▁indust	-1511
▁intern	-1512
▁princi	-1513
▁vision	-1514
▁However	-1515
▁actions	-1516
▁founder	-1517
▁release	-1518
achusetts	-1519
▁analysis	-1520
▁original	-1521
▁reported	-1522
▁services	-1523
▁cognitive	-1524
▁knowledge	-1525
▁questions	-1526
▁Conference	-1527
▁autonomous	-1528
▁considered	-1529
▁Massachusetts	-1530
af	-1531
ij	-1532
000	-1533
198	-1534
ars	-1535
ats	-1536
cts	-1537
ico	-1538
ott	-1539
▁97	-1540
▁Ha	-1541
▁Sw	-1542
▁op	-1543
▁sy	-1544
ackg	-1545
ford	-1546
rast	-1547
▁Ale	-1548
▁Col	-1549
▁Deb	-1550
▁Nad	-1551
▁Rec	-1552
▁Sur	-1553
▁art	-1554
▁ext	-1555
▁min	-1556
▁sta	-1557
aster	-1558
force	-1559
grams	-1560
ility	-1561
rated	-1562
ronic	-1563
▁2024	-1564
▁Berk	-1565
▁Comm	-1566
▁conc	-1567
▁mark	-1568
▁prim	-1569
▁priv	-1570
nament	-1571
▁2019,	-1572
▁First	-1573
▁align	-1574
▁event	-1575
▁hypot	-1576
▁named	-1577
▁those	-1578
▁three	-1579
emantic	-1580
ffering	-1581
▁Center	-1582
▁Nadler	-1583
▁active	-1584
▁around	-1585
▁econom	-1586
▁identi	-1587
▁papers	-1588
▁player	-1589
▁search	-1590
▁funding	-1591
ackground	-1592
▁Berkeley	-1593
▁Buddhist	-1594
▁discover	-1595
▁function	-1596
▁previous	-1597
▁programm	-1598
▁standard	-1599
▁potential	-1600
▁processing	-1601
▁performance	-1602
3)	-1603
3.	-1604
cc	-1605
ck	-1606
oh	-1607
▁7	-1608
▁愛	-1609
AIR	-1610
acy	-1611
att	-1612
jor	-1613
ool	-1614
rab	-1615
▁fl	-1616
▁vo	-1617
-201	-1618
ingu	-1619
onse	-1620
pact	-1621
ross	-1622
sych	-1623
tice	-1624
ties	-1625
tish	-1626
ynam	-1627
▁Fin	-1628
▁Hog	-1629
▁Tay	-1630
▁You	-1631
▁att	-1632
▁cer	-1633
▁enc	-1634
▁end	-1635
▁fir	-1636
▁ris	-1637
▁spe	-1638
▁typ	-1639
chell	-1640
ellow	-1641
iving	-1642
ology	-1643
right	-1644
tives	-1645
▁2012	-1646
▁bots	-1647
▁four	-1648
▁idea	-1649
▁phen	-1650
▁phys	-1651
▁repl	-1652
▁role	-1653
▁song	-1654
inking	-1655
risure	-1656
▁2025,	-1657
▁Block	-1658
▁Super	-1659
▁World	-1660
▁defin	-1661
▁early	-1662
▁given	-1663
▁impro	-1664
▁learn	-1665
▁short	-1666
itchell	-1667
▁access	-1668
▁across	-1669
▁contin	-1670
▁launch	-1671
▁served	-1672
▁should	-1673
▁British	-1674
▁Hogarth	-1675
▁account	-1676
▁complex	-1677
▁convers	-1678
▁leading	-1679
▁problem	-1680
▁special	-1681
▁Acrisure	-1682
▁collabor	-1683
▁included	-1684
▁phenomen	-1685
▁projects	-1686
▁releases	-1687
▁Executive	-1688
▁suffering	-1689
intelligence	-1690
▁engineering	-1691
.,	-1692
8,	-1693
9,	-1694
pt	-1695
rd	-1696
sk	-1697
▁X	-1698
OAI	-1699
ago	-1700
arm	-1701
dom	-1702
ert	-1703
ier	-1704
thy	-1705
udi	-1706
ves	-1707
▁11	-1708
▁14	-1709
▁25	-1710
▁Bo	-1711
▁Fr	-1712
▁II	-1713
▁IT	-1714
▁ef	-1715
▁es	-1716
-202	-1717
acks	-1718
ales	-1719
chie	-1720
ions	-1721
ises	-1722
oung	-1723
rael	-1724
ries	-1725
roup	-1726
time	-1727
▁978	-1728
▁Cap	-1729
▁MIT	-1730
▁Met	-1731
▁Nat	-1732
▁Pit	-1733
▁cla	-1734
▁del	-1735
▁fac	-1736
▁lab	-1737
▁law	-1738
▁lim	-1739
▁loc	-1740
▁pop	-1741
▁ret	-1742
▁saf	-1743
▁tit	-1744
▁vis	-1745
aches	-1746
ading	-1747
atory	-1748
ciety	-1749
ially	-1750
orpor	-1751
ought	-1752
ption	-1753
ridge	-1754
▁Disc	-1755
▁Film	-1756
▁Russ	-1757
▁Wall	-1758
▁arti	-1759
▁does	-1760
▁goal	-1761
▁made	-1762
▁mind	-1763
▁robo	-1764
▁tour	-1765
▁trad	-1766
action	-1767
▁2013,	-1768
▁2020,	-1769
▁Apple	-1770
▁Chris	-1771
▁James	-1772
▁board	-1773
▁chair	-1774
▁chief	-1775
▁effor	-1776
▁exist	-1777
▁image	-1778
▁refer	-1779
▁solve	-1780
▁super	-1781
olution	-1782
▁Appian	-1783
▁Israel	-1784
▁Minist	-1785
▁Taylor	-1786
▁before	-1787
▁compar	-1788
▁produc	-1789
▁rather	-1790
▁reward	-1791
▁demonst	-1792
▁digital	-1793
▁fiction	-1794
▁identif	-1795
▁methods	-1796
▁without	-1797
▁Mitchell	-1798
▁industry	-1799
▁military	-1800
▁programs	-1801
▁provides	-1802
▁students	-1803
▁techniqu	-1804
▁President	-1805
rastructure	-1806
▁Background	-1807
▁international	-1808
2.	-1809
ng	-1810
sc	-1811
The	-1812
edd	-1813
ets	-1814
ged	-1815
ili	-1816
mit	-1817
oka	-1818
ram	-1819
rie	-1820
uch	-1821
umb	-1822
▁3:	-1823
▁4:	-1824
▁Sm	-1825
▁Tw	-1826
-199	-1827
ably	-1828
hema	-1829
ilar	-1830
ivid	-1831
uted	-1832
▁ARI	-1833
▁Tol	-1834
▁aff	-1835
▁bel	-1836
▁ent	-1837
▁him	-1838
▁occ	-1839
▁str	-1840
▁suc	-1841
▁unc	-1842
▁whe	-1843
ances	-1844
arter	-1845
cepts	-1846
eland	-1847
engio	-1848
ening	-1849
press	-1850
riven	-1851
ument	-1852
▁Camb	-1853
▁Fran	-1854
▁IOAI	-1855
▁King	-1856
▁Sher	-1857
▁Sing	-1858
▁aims	-1859
▁best	-1860
▁emer	-1861
▁grow	-1862
▁home	-1863
▁host	-1864
▁pass	-1865
▁same	-1866
▁take	-1867
▁term	-1868
▁trac	-1869
ancial	-1870
ctions	-1871
enture	-1872
lation	-1873
rategy	-1874
▁2014,	-1875
▁2018,	-1876
▁After	-1877
▁Shane	-1878
▁achie	-1879
▁again	-1880
▁along	-1881
▁attem	-1882
▁every	-1883
▁influ	-1884
▁major	-1885
▁might	-1886
▁users	-1887
ication	-1888
ificant	-1889
▁Bengio	-1890
▁Career	-1891
▁academ	-1892
▁artist	-1893
▁career	-1894
▁effect	-1895
▁explor	-1896
▁impact	-1897
▁itself	-1898
▁partic	-1899
▁record	-1900
▁worked	-1901
▁Kingdom	-1902
▁address	-1903
▁individ	-1904
▁respons	-1905
velopment	-1906
▁generate	-1907
▁personal	-1908
▁possible	-1909
▁Cambridge	-1910
▁developing	-1911
▁government	-1912
▁tournament	-1913
▁established	-1914
▁significant	-1915
▁computational	-1916
▁consciousness	-1917
▁understanding	-1918
▁representation	-1919
-6	-1920
Ch	-1921
IG	-1922
MA	-1923
to	-1924
▁.	-1925
ams	-1926
bur	-1927
eti	-1928
fit	-1929
ica	-1930
ior	-1931
ird	-1932
itz	-1933
ley	-1934
oks	-1935
oud	-1936
rop	-1937
ude	-1938
▁Av	-1939
▁El	-1940
▁Ev	-1941
▁UK	-1942
▁We	-1943
,000	-1944
IGAI	-1945
arri	-1946
aves	-1947
book	-1948
icit	-1949
inov	-1950
itiz	-1951
ival	-1952
ouse	-1953
pose	-1954
reat	-1955
sequ	-1956
ters	-1957
till	-1958
vard	-1959
wide	-1960
▁And	-1961
▁Are	-1962
▁Dan	-1963
▁Est	-1964
▁Gra	-1965
▁Lis	-1966
▁Not	-1967
▁Pre	-1968
▁exp	-1969
▁fil	-1970
▁ful	-1971
▁met	-1972
▁see	-1973
▁tar	-1974
arily	-1975
burgh	-1976
ified	-1977
inese	-1978
veill	-1979
▁BAAI	-1980
▁Chat	-1981
▁City	-1982
▁Hive	-1983
▁Rich	-1984
▁They	-1985
▁fact	-1986
▁self	-1987
▁symb	-1988
▁then	-1989
▁vari	-1990
boitiz	-1991
ective	-1992
gether	-1993
▁2021.	-1994
▁India	-1995
▁Press	-1996
▁Simon	-1997
▁added	-1998
▁gradu	-1999
▁group	-2000
▁innov	-2001
▁labor	-2002
▁makes	-2003
▁novel	-2004
▁prize	-2005
▁resul	-2006
▁robot	-2007
▁sales	-2008
▁score	-2009
▁terms	-2010
ination	-2011
ography	-2012
▁Global	-2013
▁Review	-2014
▁Sherpa	-2015
▁Toloka	-2016
▁became	-2017
▁beings	-2018
▁combin	-2019
▁domain	-2020
▁obtain	-2021
▁source	-2022
▁studio	-2023
▁target	-2024
ications	-2025
lication	-2026
▁Austral	-2027
▁Harvard	-2028
▁Program	-2029
▁Systems	-2030
▁certain	-2031
▁concern	-2032
▁contrib	-2033
▁distrib	-2034
▁ethical	-2035
▁fluents	-2036
▁focused	-2037
▁largest	-2038
▁members	-2039
▁network	-2040
▁popular	-2041
▁success	-2042
▁winners	-2043
abilities	-2044
▁National	-2045
▁rational	-2046
▁response	-2047
▁together	-2048
▁assistant	-2049
▁computers	-2050
▁computing	-2051
▁presented	-2052
▁generative	-2053
▁particular	-2054
▁Information	-2055
▁organization	-2056
-3	-2057
ML	-2058
RF	-2059
va	-2060
▁0	-2061
▁u	-2062
00.	-2063
7),	-2064
LMs	-2065
alo	-2066
eer	-2067
gel	-2068
irt	-2069
ked	-2070
ony	-2071
ood	-2072
opy	-2073
pir	-2074
ung	-2075
way	-2076
wor	-2077
xim	-2078
▁16	-2079
▁Co	-2080
▁EP	-2081
▁GP	-2082
▁Us	-2083
▁me	-2084
ario	-2085
beel	-2086
cisc	-2087
eder	-2088
iced	-2089
ient	-2090
isms	-2091
itar	-2092
ives	-2093
list	-2094
rote	-2095
urop	-2096
utes	-2097
▁Don	-2098
▁PhD	-2099
▁Put	-2100
▁Who	-2101
▁bas	-2102
▁beh	-2103
▁bet	-2104
▁dat	-2105
▁dra	-2106
▁ens	-2107
▁hon	-2108
▁mov	-2109
▁nec	-2110
▁pra	-2111
▁sch	-2112
0.00.	-2113
cisco	-2114
ising	-2115
ustom	-2116
▁Alex	-2117
▁Arab	-2118
▁Cale	-2119
▁Cont	-2120
▁More	-2121
▁Some	-2122
▁Tong	-2123
▁Wash	-2124
▁When	-2125
▁arch	-2126
▁back	-2127
▁cent	-2128
▁even	-2129
▁good	-2130
▁impl	-2131
▁long	-2132
▁math	-2133
▁must	-2134
▁pres	-2135
▁show	-2136
ection	-2137
elling	-2138
ention	-2139
ington	-2140
iverse	-2141
ources	-2142
profit	-2143
▁BIGAI	-2144
▁Music	-2145
▁Organ	-2146
▁Other	-2147
▁Scott	-2148
▁becom	-2149
▁began	-2150
▁chall	-2151
▁dynam	-2152
▁goals	-2153
▁graph	-2154
▁guess	-2155
▁partn	-2156
▁power	-2157
▁psych	-2158
▁think	-2159
artment	-2160
founded	-2161
ugeland	-2162
ulation	-2163
vention	-2164
▁Abbeel	-2165
▁Daniel	-2166
▁Govern	-2167
▁Person	-2168
▁Servic	-2169
▁Turing	-2170
▁better	-2171
▁change	-2172
▁claims	-2173
▁common	-2174
▁compon	-2175
▁health	-2176
▁humans	-2177
▁making	-2178
▁necess	-2179
▁played	-2180
▁tracks	-2181
▁Aboitiz	-2182
▁Journal	-2183
▁awarded	-2184
▁context	-2185
▁explain	-2186
▁percept	-2187
▁reflect	-2188
▁similar	-2189
▁venture	-2190
▁whether	-2191
elevision	-2192
forcement	-2193
veillance	-2194
▁Computer	-2195
▁concepts	-2196
▁editions	-2197
▁features	-2198
▁hypothes	-2199
▁interest	-2200
▁multiple	-2201
▁particip	-2202
▁produced	-2203
▁specific	-2204
▁Francisco	-2205
▁Professor	-2206
▁describes	-2207
▁discovery	-2208
▁practical	-2209
▁singleton	-2210
▁Washington	-2211
▁algorithms	-2212
▁appearance	-2213
▁approaches	-2214
▁collection	-2215
▁electronic	-2216
▁individual	-2217
▁operations	-2218
▁techniques	-2219
▁Development	-2220
▁Technologies	-2221
▁capabilities	-2222
9.	-2223
IS	-2224
PD	-2225
de	-2226
hu	-2227
▁i	-2228
akh	-2229
ald	-2230
ani	-2231
app	-2232
ara	-2233
ena	-2234
hib	-2235
not	-2236
omm	-2237
rel	-2238
rew	-2239
ria	-2240
ump	-2241
urn	-2242
val	-2243
▁Ag	-2244
▁By	-2245
▁Cy	-2246
▁Sl	-2247
▁if	-2248
▁po	-2249
▁vi	-2250
ania	-2251
augh	-2252
ause	-2253
back	-2254
born	-2255
eter	-2256
fing	-2257
flow	-2258
ined	-2259
merc	-2260
phic	-2261
rodu	-2262
sive	-2263
ules	-2264
▁123	-2265
▁196	-2266
▁Dal	-2267
▁Her	-2268
▁His	-2269
▁Jar	-2270
▁Mon	-2271
▁Ret	-2272
▁aim	-2273
▁arm	-2274
▁che	-2275
▁fig	-2276
▁map	-2277
▁opp	-2278
▁son	-2279
▁sum	-2280
▁tal	-2281
▁val	-2282
▁via	-2283
▁wid	-2284
echan	-2285
ector	-2286
erate	-2287
icago	-2288
ijing	-2289
itect	-2290
▁Arch	-2291
▁Emir	-2292
▁Lisp	-2293
▁Mark	-2294
▁Mich	-2295
▁Song	-2296
▁Stan	-2297
▁Stud	-2298
▁That	-2299
▁Vent	-2300
▁find	-2301
▁free	-2302
▁hard	-2303
▁issu	-2304
▁news	-2305
▁ways	-2306
acking	-2307
cation	-2308
ctoral	-2309
dition	-2310
idence	-2311
imedia	-2312
ration	-2313
tivity	-2314
urance	-2315
▁2016,	-2316
▁Angel	-2317
▁Brain	-2318
▁Europ	-2319
▁Since	-2320
▁Spain	-2321
▁Stark	-2322
▁Times	-2323
▁among	-2324
▁areas	-2325
▁const	-2326
▁emerg	-2327
▁evalu	-2328
▁level	-2329
▁mater	-2330
▁month	-2331
▁objec	-2332
▁wrote	-2333
eration	-2334
itation	-2335
ternate	-2336
▁Awards	-2337
▁France	-2338
▁associ	-2339
▁critic	-2340
▁custom	-2341
▁fields	-2342
▁formal	-2343
▁nature	-2344
▁proper	-2345
▁recogn	-2346
▁rights	-2347
▁singer	-2348
▁speech	-2349
itations	-2350
ological	-2351
opyright	-2352
▁Beijing	-2353
▁Chicago	-2354
▁Richard	-2355
▁Surfing	-2356
▁ability	-2357
▁against	-2358
▁article	-2359
▁capable	-2360
▁capital	-2361
▁competi	-2362
▁efforts	-2363
▁experts	-2364
▁feature	-2365
▁product	-2366
▁related	-2367
▁service	-2368
▁startup	-2369
▁subject	-2370
▁Business	-2371
▁Economic	-2372
▁Emirates	-2373
▁Machines	-2374
▁Sciences	-2375
▁Ventures	-2376
▁approach	-2377
▁articles	-2378
▁obtained	-2379
▁position	-2380
▁robotics	-2381
▁semantic	-2382
▁strategy	-2383
▁Haugeland	-2384
▁Wikimedia	-2385
▁relations	-2386
▁structure	-2387
▁technical	-2388
inforcement	-2389
▁Foundation	-2390
▁management	-2391
▁membership	-2392
▁principles	-2393
▁empowerment	-2394
▁programming	-2395
▁infrastructure	-2396
.:	-2397
50	-2398
62	-2399
7.	-2400
EE	-2401
LP	-2402
PS	-2403
ba	-2404
ds	-2405
hj	-2406
ho	-2407
sw	-2408
ta	-2409
tn	-2410
uk	-2411
uy	-2412
AIC	-2413
GPT	-2414
ael	-2415
arl	-2416
day	-2417
ead	-2418
els	-2419
ham	-2420
igi	-2421
mag	-2422
ook	-2423
par	-2424
pre	-2425
sci	-2426
ser	-2427
sue	-2428
tal	-2429
utd	-2430
▁23	-2431
▁SS	-2432
-200	-2433
Seek	-2434
aced	-2435
agaz	-2436
anna	-2437
ants	-2438
atic	-2439
bums	-2440
enci	-2441
enry	-2442
face	-2443
ires	-2444
ivil	-2445
know	-2446
less	-2447
like	-2448
load	-2449
olar	-2450
rary	-2451
reak	-2452
rett	-2453
ring	-2454
ship	-2455
spec	-2456
uous	-2457
vent	-2458
wani	-2459
work	-2460
▁(19	-2461
▁Bob	-2462
▁Edu	-2463
▁Mac	-2464
▁Mat	-2465
▁Mex	-2466
▁Nor	-2467
▁Par	-2468
▁Saf	-2469
▁Sal	-2470
▁Sut	-2471
▁Tri	-2472
▁Vic	-2473
▁box	-2474
▁cam	-2475
▁dam	-2476
▁due	-2477
▁low	-2478
▁now	-2479
▁pat	-2480
▁red	-2481
▁sep	-2482
▁sit	-2483
▁ten	-2484
▁voc	-2485
▁won	-2486
ality	-2487
epend	-2488
hjong	-2489
irehe	-2490
ively	-2491
lands	-2492
losed	-2493
oving	-2494
ports	-2495
ramew	-2496
throp	-2497
▁Comp	-2498
▁Eric	-2499
▁Germ	-2500
▁Iron	-2501
▁Mess	-2502
▁Mind	-2503
▁Mont	-2504
▁Sine	-2505
▁Will	-2506
▁Your	-2507
▁adap	-2508
▁appl	-2509
▁enti	-2510
▁just	-2511
▁page	-2512
▁sequ	-2513
▁tech	-2514
driven	-2515
engers	-2516
former	-2517
magine	-2518
rieved	-2519
stract	-2520
urther	-2521
ustwor	-2522
▁2024.	-2523
▁ARIES	-2524
▁Allen	-2525
▁Chair	-2526
▁Death	-2527
▁Elect	-2528
▁Henry	-2529
▁Human	-2530
▁Power	-2531
▁Produ	-2532
▁Trans	-2533
▁Waves	-2534
▁While	-2535
▁child	-2536
▁exten	-2537
▁final	-2538
▁optim	-2539
▁senti	-2540
▁simul	-2541
▁tools	-2542
agazine	-2543
irector	-2544
lishing	-2545
mercial	-2546
ularity	-2547
▁Academ	-2548
▁Albums	-2549
▁Associ	-2550
▁Author	-2551
▁Engine	-2552
▁Marvel	-2553
▁Mexico	-2554
▁Stacks	-2555
▁Triple	-2556
▁allows	-2557
▁become	-2558
▁debate	-2559
▁deploy	-2560
▁editor	-2561
▁employ	-2562
▁framew	-2563
▁mechan	-2564
▁mental	-2565
▁raised	-2566
▁safety	-2567
▁topics	-2568
▁visual	-2569
▁voiced	-2570
ectively	-2571
▁250.00.	-2572
▁Capital	-2573
▁Chinese	-2574
▁Debater	-2575
▁General	-2576
▁Jarrett	-2577
▁Quantum	-2578
▁Records	-2579
▁Wallach	-2580
▁advance	-2581
▁appears	-2582
▁artists	-2583
▁contain	-2584
▁figures	-2585
▁mathema	-2586
▁organiz	-2587
▁primary	-2588
▁promote	-2589
▁subsequ	-2590
▁univers	-2591
▁Avengers	-2592
▁DeepSeek	-2593
▁Inmagine	-2594
▁Stanford	-2595
▁academic	-2596
▁approval	-2597
▁calculus	-2598
▁chatbots	-2599
▁consists	-2600
▁founding	-2601
▁independ	-2602
▁referred	-2603
▁symbolic	-2604
Artificial	-2605
▁Education	-2606
▁Retrieved	-2607
▁Vicarious	-2608
▁according	-2609
▁alignment	-2610
▁analytics	-2611
▁architect	-2612
▁community	-2613
▁countries	-2614
▁decisions	-2615
▁described	-2616
▁languages	-2617
▁Convention	-2618
▁generating	-2619
▁generation	-2620
▁researcher	-2621
▁university	-2622
▁Empowerment	-2623
▁represented	-2624
,"	-2625
10	-2626
EG	-2627
IC	-2628
ID	-2629
Sc	-2630
Us	-2631
au	-2632
gl	-2633
na	-2634
...	-2635
6-1	-2636
dat	-2637
ebu	-2638
eff	-2639
era	-2640
ery	-2641
gin	-2642
hab	-2643
hic	-2644
ino	-2645
med	-2646
mic	-2647
ole	-2648
org	-2649
oss	-2650
ots	-2651
pub	-2652
reg	-2653
rum	-2654
ura	-2655
uth	-2656
zon	-2657
▁2.	-2658
▁50	-2659
▁Am	-2660
▁Ge	-2661
▁IC	-2662
▁ID	-2663
▁Ma	-2664
▁No	-2665
▁Wu	-2666
▁sk	-2667
▁ve	-2668
-198	-2669
berg	-2670
emin	-2671
ials	-2672
icon	-2673
icro	-2674
inst	-2675
olle	-2676
osen	-2677
otyp	-2678
ours	-2679
rant	-2680
side	-2681
tisf	-2682
ways	-2683
▁Dep	-2684
▁GPT	-2685
▁Its	-2686
▁Joe	-2687
▁Jon	-2688
▁Low	-2689
▁Net	-2690
▁Pat	-2691
▁Pub	-2692
▁Sil	-2693
▁Sou	-2694
▁Ste	-2695
▁Ten	-2696
▁Vis	-2697
▁amb	-2698
▁cor	-2699
▁deg	-2700
▁lay	-2701
▁leg	-2702
▁rev	-2703
▁run	-2704
▁som	-2705
▁tru	-2706
gener	-2707
inton	-2708
light	-2709
oints	-2710
posed	-2711
poses	-2712
prise	-2713
ranch	-2714
thers	-2715
▁1993	-2716
▁2000	-2717
▁2005	-2718
▁2025	-2719
▁Anal	-2720
▁Blue	-2721
▁Bost	-2722
▁GPAI	-2723
▁Last	-2724
▁Ming	-2725
▁Over	-2726
▁Sequ	-2727
▁Time	-2728
▁Yalo	-2729
▁adop	-2730
▁answ	-2731
▁auth	-2732
▁cate	-2733
▁code	-2734
▁conf	-2735
▁firm	-2736
▁hold	-2737
▁mass	-2738
▁mess	-2739
▁much	-2740
▁pers	-2741
▁read	-2742
▁scen	-2743
▁sugg	-2744
akhutd	-2745
anking	-2746
ederal	-2747
encies	-2748
ifying	-2749
irtual	-2750
orphic	-2751
player	-2752
ronics	-2753
source	-2754
though	-2755
uation	-2756
ulture	-2757
▁978-1	-2758
▁Based	-2759
▁Chief	-2760
▁Cyber	-2761
▁Early	-2762
▁Image	-2763
▁Inter	-2764
▁Pitts	-2765
▁Trump	-2766
▁datas	-2767
▁debut	-2768
▁espec	-2769
▁incre	-2770
▁input	-2771
▁joint	-2772
▁maxim	-2773
▁means	-2774
▁moved	-2775
▁oppos	-2776
▁space	-2777
▁story	-2778
▁third	-2779
▁value	-2780
▁vehic	-2781
anguage	-2782
ivision	-2783
science	-2784
▁Donald	-2785
▁Fellow	-2786
▁Monica	-2787
▁Office	-2788
▁Origin	-2789
▁albums	-2790
▁attemp	-2791
▁distin	-2792
▁expand	-2793
▁import	-2794
▁instit	-2795
▁listed	-2796
▁regard	-2797
▁satisf	-2798
▁states	-2799
▁strong	-2800
▁struct	-2801
▁things	-2802
▁vocals	-2803
edicated	-2804
▁Academy	-2805
▁America	-2806
▁ChatGPT	-2807
▁Digital	-2808
▁English	-2809
▁Russian	-2810
▁actress	-2811
▁broader	-2812
▁country	-2813
▁experim	-2814
▁express	-2815
▁history	-2816
▁mahjong	-2817
▁pattern	-2818
▁private	-2819
▁results	-2820
▁studies	-2821
▁suggest	-2822
▁trained	-2823
alternate	-2824
ification	-2825
ustworthy	-2826
▁Archived	-2827
▁Internet	-2828
▁Minister	-2829
▁advanced	-2830
▁complete	-2831
▁creation	-2832
▁doctoral	-2833
▁machines	-2834
▁producer	-2835
▁security	-2836
akhutdinov	-2837
artificial	-2838
ireheading	-2839
▁Committee	-2840
▁insurance	-2841
▁processes	-2842
▁solutions	-2843
▁worldwide	-2844
▁Management	-2845
▁Pittsburgh	-2846
▁additional	-2847
▁automation	-2848
▁especially	-2849
▁experience	-2850
▁initiative	-2851
▁leadership	-2852
▁previously	-2853
▁scientists	-2854
▁television	-2855
▁application	-2856
▁operational	-2857
▁partnership	-2858
▁particularly	-2859
▁surveillance	-2860
▁Salakhutdinov	-2861
▁collaboration	-2862
1)	-2863
BM	-2864
Ev	-2865
OR	-2866
OS	-2867
SD	-2868
We	-2869
me	-2870
pi	-2871
rm	-2872
▁x	-2873
4),	-2874
AIO	-2875
Dao	-2876
adh	-2877
ees	-2878
eph	-2879
ero	-2880
ger	-2881
hao	-2882
ict	-2883
idd	-2884
ify	-2885
iny	-2886
ney	-2887
ogs	-2888
omp	-2889
rey	-2890
rus	-2891
uya	-2892
vin	-2893
zed	-2894
▁1:	-2895
▁26	-2896
▁AG	-2897
▁Dr	-2898
▁Gu	-2899
▁Pa	-2900
▁Sy	-2901
▁To	-2902
▁cy	-2903
▁ge	-2904
▁sm	-2905
IAIC	-2906
aged	-2907
aken	-2908
aray	-2909
ared	-2910
chat	-2911
code	-2912
enge	-2913
fers	-2914
ique	-2915
izes	-2916
kick	-2917
oice	-2918
oman	-2919
pret	-2920
real	-2921
ream	-2922
repr	-2923
roll	-2924
toys	-2925
uris	-2926
writ	-2927
▁Bar	-2928
▁Cri	-2929
▁Gaw	-2930
▁Hom	-2931
▁ITU	-2932
▁Leg	-2933
▁Lib	-2934
▁NPD	-2935
▁One	-2936
▁Pak	-2937
▁Pal	-2938
▁Sam	-2939
▁Sol	-2940
▁Tim	-2941
▁bod	-2942
▁did	-2943
▁eas	-2944
▁enh	-2945
▁equ	-2946
▁hor	-2947
▁jud	-2948
▁lat	-2949
▁try	-2950
▁ver	-2951
-06-1	-2952
ander	-2953
ately	-2954
aving	-2955
eneur	-2956
enior	-2957
ented	-2958
esign	-2959
ideos	-2960
ished	-2961
istan	-2962
istor	-2963
iting	-2964
ittle	-2965
itzer	-2966
lines	-2967
ourse	-2968
pired	-2969
roach	-2970
scale	-2971
times	-2972
train	-2973
vania	-2974
▁(198	-2975
▁1970	-2976
▁1980	-2977
▁1999	-2978
▁2001	-2979
▁2011	-2980
▁2014	-2981
▁2015	-2982
▁Alic	-2983
▁CAIO	-2984
▁Cebu	-2985
▁Chap	-2986
▁Coun	-2987
▁Dist	-2988
▁From	-2989
▁Ital	-2990
▁Meta	-2991
▁Part	-2992
▁Tuya	-2993
▁Vice	-2994
▁With	-2995
▁Work	-2996
▁able	-2997
▁case	-2998
▁fail	-2999
▁feed	-3000
▁five	-3001
▁lack	-3002
▁left	-3003
▁near	-3004
▁prob	-3005
▁risk	-3006
▁sold	-3007
▁tend	-3008
▁type	-3009
▁user	-3010
▁util	-3011
▁view	-3012
ancing	-3013
arried	-3014
atives	-3015
making	-3016
mitted	-3017
ointed	-3018
ractal	-3019
reakth	-3020
skever	-3021
▁Analy	-3022
▁Chart	-3023
▁Class	-3024
▁Dalle	-3025
▁Model	-3026
▁Molle	-3027
▁Order	-3028
▁Peter	-3029
▁Prime	-3030
▁Putin	-3031
▁Rober	-3032
▁Smart	-3033
▁Stock	-3034
▁Track	-3035
▁Union	-3036
▁WuDao	-3037
▁Young	-3038
▁advis	-3039
▁chang	-3040
▁condu	-3041
▁daugh	-3042
▁encry	-3043
▁firms	-3044
▁grant	-3045
▁guide	-3046
▁logic	-3047
▁neuro	-3048
▁notes	-3049
▁obser	-3050
▁point	-3051
▁rules	-3052
▁separ	-3053
▁still	-3054
▁table	-3055
▁total	-3056
▁until	-3057
▁young	-3058
binator	-3059
pending	-3060
▁Future	-3061
▁Gawdat	-3062
▁Gender	-3063
▁Nature	-3064
▁Neural	-3065
▁analog	-3066
▁animal	-3067
▁argues	-3068
▁damage	-3069
▁determ	-3070
▁expert	-3071
▁fellow	-3072
▁gender	-3073
▁ground	-3074
▁growth	-3075
▁headqu	-3076
▁hosted	-3077
▁member	-3078
▁occurr	-3079
▁others	-3080
▁output	-3081
▁refers	-3082
▁statis	-3083
▁values	-3084
▁videos	-3085
▁widely	-3086
position	-3087
▁Fractal	-3088
▁Michael	-3089
▁Process	-3090
▁Scholar	-3091
▁Society	-3092
▁animals	-3093
▁anticip	-3094
▁artwork	-3095
▁becomes	-3096
▁depends	-3097
▁dynamic	-3098
▁helping	-3099
▁improve	-3100
▁listing	-3101
▁physics	-3102
▁players	-3103
▁predict	-3104
▁prevent	-3105
▁privacy	-3106
▁produce	-3107
▁quality	-3108
▁replace	-3109
▁sensors	-3110
▁society	-3111
▁started	-3112
▁writing	-3113
ationally	-3114
generated	-3115
ilosopher	-3116
istorical	-3117
repreneur	-3118
▁Pakistan	-3119
▁Security	-3120
▁Songkick	-3121
▁abstract	-3122
▁addition	-3123
▁automate	-3124
▁building	-3125
▁challeng	-3126
▁describe	-3127
▁download	-3128
▁featured	-3129
▁graduate	-3130
▁intended	-3131
▁internal	-3132
▁maintain	-3133
▁planning	-3134
▁practice	-3135
▁provided	-3136
▁purposes	-3137
▁question	-3138
▁sciences	-3139
▁sentient	-3140
▁thinking	-3141
▁Sutskever	-3142
▁dedicated	-3143
▁financial	-3144
▁functions	-3145
▁generally	-3146
▁important	-3147
▁influence	-3148
▁supported	-3149
reakthrough	-3150
▁Department	-3151
▁Philosophy	-3152
▁integrated	-3153
▁perception	-3154
▁predictive	-3155
▁supporting	-3156
▁Engineering	-3157
▁exploration	-3158
▁individuals	-3159
▁investments	-3160
▁Organization	-3161
▁relationship	-3162
▁organizations	-3163
▁reinforcement	-3164
")	-3165
15	-3166
2)	-3167
30	-3168
59	-3169
7)	-3170
71	-3171
79	-3172
8.	-3173
BC	-3174
BH	-3175
DR	-3176
EC	-3177
ET	-3178
In	-3179
ax	-3180
go	-3181
hi	-3182
ke	-3183
mi	-3184
110	-3185
5),	-3186
Net	-3187
aks	-3188
alf	-3189
ana	-3190
ans	-3191
box	-3192
cil	-3193
eal	-3194
emb	-3195
ems	-3196
erc	-3197
iar	-3198
lan	-3199
lin	-3200
lym	-3201
nel	-3202
oia	-3203
oid	-3204
oli	-3205
onn	-3206
ora	-3207
orm	-3208
rak	-3209
sid	-3210
son	-3211
syl	-3212
tif	-3213
uns	-3214
▁1.	-3215
▁2:	-3216
▁4,	-3217
▁40	-3218
▁7,	-3219
▁Ap	-3220
▁Br	-3221
▁Fl	-3222
▁UC	-3223
▁UN	-3224
▁Uk	-3225
adig	-3226
aled	-3227
cing	-3228
cipl	-3229
eddy	-3230
eler	-3231
enty	-3232
ergy	-3233
erry	-3234
fact	-3235
fork	-3236
glom	-3237
here	-3238
hest	-3239
iber	-3240
iden	-3241
imin	-3242
ious	-3243
iter	-3244
iver	-3245
ixed	-3246
leas	-3247
nder	-3248
oham	-3249
ones	-3250
orer	-3251
phas	-3252
piad	-3253
pite	-3254
quis	-3255
tian	-3256
tivi	-3257
ustr	-3258
▁11,	-3259
▁Adv	-3260
▁Ama	-3261
▁Ben	-3262
▁Bra	-3263
▁Det	-3264
▁Fes	-3265
▁Fri	-3266
▁IBM	-3267
▁Kar	-3268
▁Kri	-3269
▁LLM	-3270
▁Out	-3271
▁Per	-3272
▁Rem	-3273
▁SSI	-3274
▁Sub	-3275
▁Tom	-3276
▁Tor	-3277
▁Use	-3278
▁Val	-3279
▁Wal	-3280
▁bre	-3281
▁der	-3282
▁doc	-3283
▁emb	-3284
▁exc	-3285
▁fav	-3286
▁few	-3287
▁gen	-3288
▁hig	-3289
▁hom	-3290
▁job	-3291
▁mar	-3292
▁sex	-3293
▁vol	-3294
▁yet	-3295
aging	-3296
annel	-3297
anner	-3298
attle	-3299
ature	-3300
enger	-3301
iring	-3302
level	-3303
olars	-3304
ondon	-3305
onomy	-3306
oring	-3307
ounds	-3308
rical	-3309
tival	-3310
umbia	-3311
world	-3312
▁(202	-3313
▁1989	-3314
▁2009	-3315
▁2013	-3316
▁Alph	-3317
▁CAIR	-3318
▁Cong	-3319
▁Conn	-3320
▁Face	-3321
▁Good	-3322
▁Life	-3323
▁Mart	-3324
▁Olym	-3325
▁Paul	-3326
▁Penn	-3327
▁Phil	-3328
▁Safe	-3329
▁Shao	-3330
▁Tony	-3331
▁alle	-3332
▁bene	-3333
▁conn	-3334
▁coun	-3335
▁cred	-3336
▁days	-3337
▁enab	-3338
▁laws	-3339
▁next	-3340
▁pion	-3341
▁race	-3342
▁reac	-3343
▁reve	-3344
▁sets	-3345
▁spok	-3346
▁stim	-3347
▁supp	-3348
▁task	-3349
▁wife	-3350
aluigi	-3351
chfork	-3352
ething	-3353
minist	-3354
plorer	-3355
public	-3356
riving	-3357
sively	-3358
tising	-3359
ustice	-3360
vation	-3361
▁(2009	-3362
▁2008)	-3363
▁978-0	-3364
▁Alert	-3365
▁Earth	-3366
▁Grand	-3367
▁House	-3368
▁Media	-3369
▁PIAIC	-3370
▁Prize	-3371
▁Robot	-3372
▁State	-3373
▁Tract	-3374
▁Under	-3375
▁Video	-3376
▁Women	-3377
▁books	-3378
▁check	-3379
▁civil	-3380
▁cloud	-3381
▁colle	-3382
▁death	-3383
▁decid	-3384
▁domin	-3385
▁exhib	-3386
▁films	-3387
▁great	-3388
▁issue	-3389
▁liner	-3390
▁perce	-3391
▁pleas	-3392
▁posts	-3393
▁promp	-3394
▁range	-3395
▁risks	-3396
▁sense	-3397
▁share	-3398
▁stock	-3399
▁study	-3400
▁taken	-3401
▁takes	-3402
▁teams	-3403
▁times	-3404
▁today	-3405
▁topic	-3406
▁trust	-3407
-06-11.	-3408
actions	-3409
artered	-3410
hetical	-3411
ilation	-3412
inguish	-3413
itarian	-3414
related	-3415
ription	-3416
roduced	-3417
thropic	-3418
written	-3419
▁(1993)	-3420
▁Amazon	-3421
▁Centre	-3422
▁London	-3423
▁Lowman	-3424
▁Modern	-3425
▁Nether	-3426
▁OpenEv	-3427
▁acquis	-3428
▁activi	-3429
▁agency	-3430
▁amount	-3431
▁behind	-3432
▁biases	-3433
▁degree	-3434
▁emphas	-3435
▁enable	-3436
▁ethics	-3437
▁fluent	-3438
▁franch	-3439
▁issues	-3440
▁market	-3441
▁mining	-3442
▁modern	-3443
▁mother	-3444
▁recomm	-3445
▁result	-3446
▁robots	-3447
▁sector	-3448
▁solely	-3449
▁titled	-3450
▁transc	-3451
omorphic	-3452
sylvania	-3453
▁(2017),	-3454
▁Austria	-3455
▁Federal	-3456
▁Germany	-3457
▁Library	-3458
▁Seattle	-3459
▁Sequoia	-3460
▁Silicon	-3461
▁Switzer	-3462
▁another	-3463
▁applied	-3464
▁backing	-3465
▁because	-3466
▁elected	-3467
▁emotion	-3468
▁focuses	-3469
▁highest	-3470
▁however	-3471
▁instead	-3472
▁involve	-3473
▁limited	-3474
▁objects	-3475
▁partner	-3476
▁praised	-3477
▁stating	-3478
▁stories	-3479
▁thought	-3480
glomerate	-3481
vertising	-3482
▁Approach	-3483
▁Columbia	-3484
▁Congress	-3485
▁Director	-3486
▁Facebook	-3487
▁Festival	-3488
▁Ministry	-3489
▁Olympiad	-3490
▁Overview	-3491
▁Personal	-3492
▁Platform	-3493
▁Republic	-3494
▁Semantic	-3495
▁Services	-3496
▁Thinking	-3497
▁ablation	-3498
▁appeared	-3499
▁argument	-3500
▁comments	-3501
▁creating	-3502
▁directed	-3503
▁economic	-3504
▁emerging	-3505
▁engineer	-3506
▁existing	-3507
▁explicit	-3508
▁external	-3509
▁humanity	-3510
▁incorpor	-3511
▁modeling	-3512
▁musician	-3513
▁national	-3514
▁offering	-3515
▁products	-3516
▁property	-3517
▁protests	-3518
▁recorded	-3519
▁revealed	-3520
▁starting	-3521
▁suggests	-3522
▁transpar	-3523
ilosophers	-3524
▁Australia	-3525
▁Financial	-3526
▁Pitchfork	-3527
▁Tractable	-3528
▁appointed	-3529
▁cognition	-3530
▁economics	-3531
▁intention	-3532
▁interpret	-3533
▁interview	-3534
▁listening	-3535
▁necessary	-3536
▁phenomena	-3537
▁president	-3538
▁primarily	-3539
▁recognize	-3540
▁recording	-3541
▁something	-3542
▁submitted	-3543
▁Combinator	-3544
▁Generative	-3545
▁Governance	-3546
▁Scientific	-3547
▁activities	-3548
▁commercial	-3549
▁completing	-3550
▁components	-3551
▁continuous	-3552
▁eventually	-3553
▁frameworks	-3554
▁governance	-3555
▁hypotheses	-3556
▁innovation	-3557
▁investment	-3558
▁laboratory	-3559
▁objectives	-3560
▁originally	-3561
▁production	-3562
▁psychology	-3563
▁structures	-3564
▁successful	-3565
▁2022-06-11.	-3566
▁Association	-3567
▁Netherlands	-3568
▁Researchers	-3569
▁Singularity	-3570
▁Switzerland	-3571
▁Trustworthy	-3572
▁conferences	-3573
▁interaction	-3574
▁philosopher	-3575
▁responsible	-3576
▁traditional	-3577
▁wireheading	-3578
▁Breakthrough	-3579
▁OpenEvidence	-3580
▁Pennsylvania	-3581
▁architecture	-3582
▁demonstrated	-3583
▁distribution	-3584
▁environments	-3585
▁respectively	-3586
▁universities	-3587
▁communication	-3588
'.	-3589
4)	-3590
40	-3591
43	-3592
45	-3593
6.	-3594
7,	-3595
AD	-3596
CH	-3597
RA	-3598
SA	-3599
TO	-3600
Th	-3601
co	-3602
li	-3603
lr	-3604
my	-3605
no	-3606
oe	-3607
ox	-3608
sh	-3609
yt	-3610
▁z	-3611
10.	-3612
100	-3613
7).	-3614
APT	-3615
App	-3616
CHA	-3617
EEA	-3618
IPS	-3619
PUs	-3620
Pal	-3621
Tok	-3622
amp	-3623
ape	-3624
ava	-3625
bes	-3626
eed	-3627
enh	-3628
hol	-3629
hua	-3630
ien	-3631
ila	-3632
irl	-3633
ium	-3634
ker	-3635
lad	-3636
lus	-3637
mon	-3638
oph	-3639
pid	-3640
pri	-3641
res	-3642
rug	-3643
sis	-3644
tig	-3645
ued	-3646
ume	-3647
unt	-3648
usp	-3649
win	-3650
yal	-3651
▁18	-3652
▁3,	-3653
▁60	-3654
▁CO	-3655
▁Gl	-3656
▁If	-3657
▁LA	-3658
▁Mi	-3659
▁Pe	-3660
▁Up	-3661
▁cr	-3662
▁mo	-3663
▁sw	-3664
▁wr	-3665
▁愛理	-3666
-262	-3667
Bank	-3668
July	-3669
LLMs	-3670
Worm	-3671
agen	-3672
ards	-3673
bour	-3674
care	-3675
come	-3676
comm	-3677
cted	-3678
ebot	-3679
eden	-3680
eger	-3681
egie	-3682
ells	-3683
ench	-3684
etry	-3685
frak	-3686
free	-3687
geon	-3688
gory	-3689
habi	-3690
iary	-3691
iles	-3692
ison	-3693
ixlr	-3694
lass	-3695
lear	-3696
mark	-3697
math	-3698
most	-3699
nish	-3700
orea	-3701
ored	-3702
orts	-3703
osys	-3704
pect	-3705
racy	-3706
raft	-3707
rand	-3708
reen	-3709
rick	-3710
rior	-3711
soft	-3712
tial	-3713
tity	-3714
vest	-3715
▁18,	-3716
▁23,	-3717
▁300	-3718
▁4:0	-3719
▁AGI	-3720
▁Abu	-3721
▁Ari	-3722
▁Bay	-3723
▁Bec	-3724
▁Bod	-3725
▁Cla	-3726
▁Cue	-3727
▁Emb	-3728
▁Haw	-3729
▁Hil	-3730
▁Ide	-3731
▁Ned	-3732
▁Pap	-3733
▁Rad	-3734
▁Ref	-3735
▁Sum	-3736
▁Tik	-3737
▁Vel	-3738
▁air	-3739
▁arr	-3740
▁aud	-3741
▁cou	-3742
▁dig	-3743
▁hum	-3744
▁let	-3745
▁lik	-3746
▁mim	-3747
▁tex	-3748
▁tro	-3749
acity	-3750
apore	-3751
ariel	-3752
aries	-3753
arrow	-3754
asing	-3755
ators	-3756
elect	-3757
ellon	-3758
endly	-3759
ength	-3760
ensho	-3761
estig	-3762
estin	-3763
ffici	-3764
human	-3765
ields	-3766
ignal	-3767
ilipp	-3768
imate	-3769
insky	-3770
ither	-3771
itter	-3772
lying	-3773
odied	-3774
order	-3775
paign	-3776
puter	-3777
rateg	-3778
stain	-3779
thing	-3780
track	-3781
vival	-3782
▁(197	-3783
▁1992	-3784
▁2002	-3785
▁2004	-3786
▁Asia	-3787
▁Carn	-3788
▁Fund	-3789
▁Inst	-3790
▁Java	-3791
▁Jeff	-3792
▁Know	-3793
▁Kris	-3794
▁LLMs	-3795
▁Land	-3796
▁Mean	-3797
▁Netw	-3798
▁Pear	-3799
▁Prom	-3800
▁Rele	-3801
▁Resp	-3802
▁Tech	-3803
▁Trey	-3804
▁Wadh	-3805
▁Wiki	-3806
▁Writ	-3807
▁Year	-3808
▁audi	-3809
▁cost	-3810
▁date	-3811
▁dire	-3812
▁ever	-3813
▁file	-3814
▁full	-3815
▁happ	-3816
▁last	-3817
▁less	-3818
▁love	-3819
▁meet	-3820
▁miss	-3821
▁rank	-3822
▁reli	-3823
▁soci	-3824
▁soon	-3825
▁step	-3826
▁wayp	-3827
▁went	-3828
▁wide	-3829
APTCHA	-3830
igning	-3831
orking	-3832
ourney	-3833
tation	-3834
uments	-3835
▁14110	-3836
▁2008.	-3837
▁2010,	-3838
▁2015.	-3839
▁2018.	-3840
▁2019.	-3841
▁2020.	-3842
▁2022.	-3843
▁2025.	-3844
▁Alpha	-3845
▁Board	-3846
▁Cloud	-3847
▁Colle	-3848
▁Dhabi	-3849
▁Enter	-3850
▁Hanna	-3851
▁Influ	-3852
▁Innov	-3853
▁Italy	-3854
▁Jonze	-3855
▁Korea	-3856
▁Micro	-3857
▁Moham	-3858
▁Naray	-3859
▁Notes	-3860
▁Pixlr	-3861
▁South	-3862
▁Study	-3863
▁Techn	-3864
▁Their	-3865
▁There	-3866
▁Water	-3867
▁Willi	-3868
▁basis	-3869
▁begin	-3870
▁belie	-3871
▁comed	-3872
▁coord	-3873
▁dance	-3874
▁decom	-3875
▁depic	-3876
▁devic	-3877
▁enter	-3878
▁forms	-3879
▁gives	-3880
▁least	-3881
▁lever	-3882
▁light	-3883
▁lingu	-3884
▁manif	-3885
▁memor	-3886
▁needs	-3887
▁offer	-3888
▁param	-3889
▁purch	-3890
▁pursu	-3891
▁rapid	-3892
▁relev	-3893
▁remov	-3894
▁roles	-3895
▁scale	-3896
▁seeks	-3897
▁title	-3898
▁units	-3899
▁voice	-3900
▁words	-3901
▁write	-3902
atively	-3903
ilities	-3904
inistry	-3905
pective	-3906
powered	-3907
pportun	-3908
ression	-3909
selling	-3910
tention	-3911
trained	-3912
▁Corpor	-3913
▁Europe	-3914
▁Forbes	-3915
▁Indian	-3916
▁Kensho	-3917
▁Legion	-3918
▁Mellon	-3919
▁People	-3920
▁Poland	-3921
▁Sariel	-3922
▁School	-3923
▁Sweden	-3924
▁Theory	-3925
▁TikTok	-3926
▁assess	-3927
▁belief	-3928
▁cannot	-3929
▁chosen	-3930
▁commit	-3931
▁couple	-3932
▁detail	-3933
▁ensure	-3934
▁entire	-3935
▁facial	-3936
▁father	-3937
▁guitar	-3938
▁linked	-3939
▁manner	-3940
▁master	-3941
▁memory	-3942
▁method	-3943
▁motion	-3944
▁multim	-3945
▁object	-3946
▁offers	-3947
▁office	-3948
▁photos	-3949
▁placed	-3950
▁points	-3951
▁presid	-3952
▁retail	-3953
▁return	-3954
▁senior	-3955
▁stands	-3956
▁static	-3957
▁transl	-3958
▁undisc	-3959
▁useful	-3960
▁valued	-3961
entially	-3962
oretical	-3963
rumental	-3964
standing	-3965
▁Bostrom	-3966
▁Council	-3967
▁Discogs	-3968
▁Fiction	-3969
▁Further	-3970
▁Infosys	-3971
▁Krieger	-3972
▁Philipp	-3973
▁Service	-3974
▁Twitter	-3975
▁Univers	-3976
▁Waluigi	-3977
▁achieve	-3978
▁attempt	-3979
▁authors	-3980
▁counter	-3981
▁culture	-3982
▁debuted	-3983
▁discipl	-3984
▁follows	-3985
▁granted	-3986
▁initial	-3987
▁instant	-3988
▁married	-3989
▁minutes	-3990
▁notable	-3991
▁paradig	-3992
▁propose	-3993
▁ranking	-3994
▁regular	-3995
▁require	-3996
▁rewards	-3997
▁section	-3998
▁sensory	-3999
▁sources	-4000
▁student	-4001
▁studied	-4002
▁surgeon	-4003
▁sustain	-4004
committee	-4005
▁Addition	-4006
▁Canadian	-4007
▁Carnegie	-4008
▁Critical	-4009
▁European	-4010
▁Founders	-4011
▁Language	-4012
▁Military	-4013
▁Montreal	-4014
▁Moreover	-4015
▁Narayana	-4016
▁Original	-4017
▁Software	-4018
▁Wadhwani	-4019
▁Yalochat	-4020
▁achieved	-4021
▁although	-4022
▁category	-4023
▁combined	-4024
▁composed	-4025
▁concerns	-4026
▁covering	-4027
▁daughter	-4028
▁directly	-4029
▁director	-4030
▁enabling	-4031
▁examples	-4032
▁focusing	-4033
▁hardware	-4034
▁identify	-4035
▁increase	-4036
▁investig	-4037
▁involves	-4038
▁journals	-4039
▁magazine	-4040
▁ministry	-4041
▁opportun	-4042
▁opposite	-4043
▁patterns	-4044
▁physical	-4045
▁pleasure	-4046
▁policies	-4047
▁scenario	-4048
▁sequence	-4049
▁startups	-4050
▁survival	-4051
▁theories	-4052
▁vehicles	-4053
▁Analytics	-4054
▁Anthropic	-4055
▁Computing	-4056
▁Copyright	-4057
▁Microsoft	-4058
▁Reception	-4059
▁Scientist	-4060
▁Singapore	-4061
▁Supertoys	-4062
▁affective	-4063
▁automated	-4064
▁beginning	-4065
▁behaviour	-4066
▁component	-4067
▁condition	-4068
▁copyright	-4069
▁currently	-4070
▁directors	-4071
▁franchise	-4072
▁generates	-4073
▁initially	-4074
▁integrate	-4075
▁interface	-4076
▁locations	-4077
▁organisms	-4078
▁principle	-4079
▁providing	-4080
▁reception	-4081
▁resources	-4082
▁transform	-4083
▁typically	-4084
▁Australian	-4085
▁Autonomous	-4086
▁Government	-4087
▁Processing	-4088
▁challenges	-4089
▁controvers	-4090
▁describing	-4091
▁developers	-4092
▁functional	-4093
▁historical	-4094
▁mechanisms	-4095
▁moderation	-4096
▁performing	-4097
▁phenomenal	-4098
▁photograph	-4099
▁publishing	-4100
▁reflection	-4101
▁subsequent	-4102
▁throughout	-4103
▁Environment	-4104
▁Influential	-4105
▁Intelligent	-4106
▁algorithmic	-4107
▁competition	-4108
▁compilation	-4109
▁computation	-4110
▁definitions	-4111
▁description	-4112
▁experiences	-4113
▁implemented	-4114
▁independent	-4115
▁influential	-4116
▁limitations	-4117
▁predictions	-4118
▁undisclosed	-4119
▁Additionally	-4120
▁Applications	-4121
▁artificially	-4122
▁conversation	-4123
▁coordination	-4124
▁hypothetical	-4125
▁implications	-4126
▁institutions	-4127
▁interactions	-4128
▁philosophers	-4129
▁publications	-4130
▁specializing	-4131
▁contributions	-4132
▁decomposition	-4133
▁environmental	-4134
▁headquartered	-4135
▁communications	-4136
▁conversational	-4137
-5	-4138
.;	-4139
12	-4140
72	-4141
74	-4142
BZ	-4143
EP	-4144
Ex	-4145
GN	-4146
LR	-4147
ME	-4148
PG	-4149
PR	-4150
TP	-4151
US	-4152
ka	-4153
la	-4154
mn	-4155
ny	-4156
vy	-4157
yu	-4158
ال	-4159
▁:	-4160
-08	-4161
.).	-4162
1),	-4163
200	-4164
5).	-4165
AIA	-4166
BZU	-4167
Hub	-4168
ICE	-4169
ISP	-4170
NLP	-4171
Pro	-4172
ala	-4173
ama	-4174
ami	-4175
aps	-4176
awa	-4177
aza	-4178
bre	-4179
cum	-4180
dis	-4181
elt	-4182
fri	-4183
gar	-4184
his	-4185
ibb	-4186
idt	-4187
iet	-4188
inc	-4189
ips	-4190
jun	-4191
ket	-4192
log	-4193
lya	-4194
net	-4195
odc	-4196
oon	-4197
oot	-4198
ope	-4199
osh	-4200
oth	-4201
ova	-4202
oys	-4203
rag	-4204
raw	-4205
rin	-4206
tin	-4207
ull	-4208
urg	-4209
ury	-4210
vey	-4211
éng	-4212
▁1,	-4213
▁13	-4214
▁2,	-4215
▁28	-4216
▁35	-4217
▁5,	-4218
▁5:	-4219
▁AP	-4220
▁Do	-4221
▁LE	-4222
▁La	-4223
▁Lu	-4224
▁Mc	-4225
▁Ob	-4226
▁Op	-4227
▁PC	-4228
▁Po	-4229
▁Sa	-4230
▁TV	-4231
▁Te	-4232
▁Zh	-4233
▁br	-4234
▁er	-4235
▁ul	-4236
:10.	-4237
Mind	-4238
aces	-4239
ague	-4240
alls	-4241
ands	-4242
arch	-4243
arol	-4244
atal	-4245
atch	-4246
aven	-4247
ayed	-4248
bers	-4249
bert	-4250
bust	-4251
ches	-4252
cont	-4253
down	-4254
ecom	-4255
ella	-4256
ened	-4257
exas	-4258
fill	-4259
fits	-4260
gans	-4261
gely	-4262
ghai	-4263
head	-4264
hold	-4265
iana	-4266
ider	-4267
ills	-4268
imir	-4269
imma	-4270
inyl	-4271
ivas	-4272
long	-4273
miss	-4274
omas	-4275
oned	-4276
onto	-4277
oods	-4278
oroc	-4279
plin	-4280
pped	-4281
rief	-4282
rike	-4283
room	-4284
rors	-4285
rowd	-4286
seud	-4287
sing	-4288
sole	-4289
some	-4290
stan	-4291
tere	-4292
term	-4293
uate	-4294
udic	-4295
ulti	-4296
viol	-4297
wise	-4298
▁...	-4299
▁13,	-4300
▁15,	-4301
▁19,	-4302
▁203	-4303
▁28,	-4304
▁30,	-4305
▁31,	-4306
▁Act	-4307
▁Age	-4308
▁Ald	-4309
▁Ali	-4310
▁Ann	-4311
▁Ash	-4312
▁Bel	-4313
▁Bul	-4314
▁CTO	-4315
▁Coh	-4316
▁Cor	-4317
▁Cre	-4318
▁Def	-4319
▁Den	-4320
▁Ess	-4321
▁Eth	-4322
▁Git	-4323
▁Gre	-4324
▁IDM	-4325
▁IGN	-4326
▁Ins	-4327
▁Jer	-4328
▁Lim	-4329
▁Loc	-4330
▁Los	-4331
▁Mal	-4332
▁Mel	-4333
▁Mil	-4334
▁Mus	-4335
▁NLP	-4336
▁Non	-4337
▁Peg	-4338
▁Pul	-4339
▁Sup	-4340
▁Tra	-4341
▁Tur	-4342
▁Two	-4343
▁Vas	-4344
▁Ven	-4345
▁Zhu	-4346
▁abs	-4347
▁bal	-4348
▁bin	-4349
▁cir	-4350
▁doi	-4351
▁ele	-4352
▁ess	-4353
▁fam	-4354
▁get	-4355
▁hub	-4356
▁mal	-4357
▁mis	-4358
▁mor	-4359
▁neg	-4360
▁old	-4361
▁our	-4362
▁phr	-4363
▁ren	-4364
▁say	-4365
▁six	-4366
▁syn	-4367
▁tok	-4368
▁too	-4369
▁vot	-4370
▁vow	-4371
▁war	-4372
▁why	-4373
BZUAI	-4374
Mixed	-4375
Music	-4376
abase	-4377
agent	-4378
ancou	-4379
anish	-4380
arned	-4381
asive	-4382
attva	-4383
ching	-4384
comes	-4385
ctors	-4386
duate	-4387
elled	-4388
emble	-4389
eness	-4390
ennis	-4391
esian	-4392
etary	-4393
hedul	-4394
house	-4395
iddle	-4396
imens	-4397
incts	-4398
inger	-4399
ional	-4400
overs	-4401
overy	-4402
pects	-4403
place	-4404
produ	-4405
raine	-4406
risis	-4407
rones	-4408
skrit	-4409
table	-4410
thern	-4411
udget	-4412
ukart	-4413
umbai	-4414
under	-4415
urIPS	-4416
urate	-4417
ustin	-4418
venue	-4419
▁1960	-4420
▁1969	-4421
▁1985	-4422
▁1990	-4423
▁1996	-4424
▁2023	-4425
▁AIDR	-4426
▁AIMA	-4427
▁AIML	-4428
▁ARIA	-4429
▁Army	-4430
▁Bang	-4431
▁Book	-4432
▁Bots	-4433
▁Code	-4434
▁Corn	-4435
▁Craw	-4436
▁Dark	-4437
▁Each	-4438
▁East	-4439
▁Edin	-4440
▁Exam	-4441
▁Game	-4442
▁Hibb	-4443
▁Hold	-4444
▁Hong	-4445
▁Hott	-4446
▁Hung	-4447
▁ICML	-4448
▁Ilya	-4449
▁Jose	-4450
▁Kong	-4451
▁LISP	-4452
▁Labs	-4453
▁Lead	-4454
▁Ling	-4455
▁Love	-4456
▁Many	-4457
▁Oper	-4458
▁Port	-4459
▁SEEA	-4460
▁Self	-4461
▁Slov	-4462
▁Soft	-4463
▁Test	-4464
▁Vlad	-4465
▁Zero	-4466
▁away	-4467
▁body	-4468
▁came	-4469
▁care	-4470
▁clar	-4471
▁crea	-4472
▁cues	-4473
▁draw	-4474
▁feel	-4475
▁fost	-4476
▁gain	-4477
▁glob	-4478
▁grad	-4479
▁guid	-4480
▁harm	-4481
▁hims	-4482
▁late	-4483
▁live	-4484
▁look	-4485
▁manu	-4486
▁maps	-4487
▁meas	-4488
▁ones	-4489
▁pain	-4490
▁peer	-4491
▁pick	-4492
▁poli	-4493
▁port	-4494
▁rats	-4495
▁redu	-4496
▁seen	-4497
▁upon	-4498
▁very	-4499
▁whom	-4500
access	-4501
aching	-4502
atsApp	-4503
atures	-4504
ements	-4505
ession	-4506
ignals	-4507
inding	-4508
inston	-4509
ishing	-4510
istics	-4511
luding	-4512
mathrm	-4513
oclass	-4514
otypes	-4515
phones	-4516
stream	-4517
ulated	-4518
▁(2015	-4519
▁0-262	-4520
▁2001.	-4521
▁2005.	-4522
▁2007.	-4523
▁2009,	-4524
▁2009.	-4525
▁2013.	-4526
▁2015,	-4527
▁Alice	-4528
▁Arist	-4529
▁Brian	-4530
▁Chile	-4531
▁Dance	-4532
▁Eston	-4533
▁Exist	-4534
▁Focus	-4535
▁Himma	-4536
▁Index	-4537
▁Initi	-4538
▁Joint	-4539
▁Judic	-4540
▁Macao	-4541
▁Multi	-4542
▁Paper	-4543
▁Saudi	-4544
▁Score	-4545
▁Smith	-4546
▁Space	-4547
▁Spiel	-4548
▁Teddy	-4549
▁Texas	-4550
▁Using	-4551
▁aimed	-4552
▁argue	-4553
▁asked	-4554
▁audio	-4555
▁avoid	-4556
▁basic	-4557
▁brief	-4558
▁bring	-4559
▁champ	-4560
▁chart	-4561
▁cited	-4562
▁comes	-4563
▁conqu	-4564
▁deliv	-4565
▁drama	-4566
▁encou	-4567
▁exerc	-4568
▁genre	-4569
▁index	-4570
▁liter	-4571
▁local	-4572
▁minor	-4573
▁motiv	-4574
▁never	-4575
▁numer	-4576
▁occur	-4577
▁overl	-4578
▁overs	-4579
▁parts	-4580
▁plans	-4581
▁prior	-4582
▁regul	-4583
▁royal	-4584
▁smart	-4585
▁sound	-4586
▁spent	-4587
▁staff	-4588
▁steps	-4589
▁stere	-4590
▁texts	-4591
▁theat	-4592
▁theme	-4593
▁tiles	-4594
▁ultim	-4595
▁vinyl	-4596
▁whose	-4597
▁woman	-4598
▁yield	-4599
Project	-4600
arriers	-4601
elected	-4602
holders	-4603
ibility	-4604
iliated	-4605
ilitate	-4606
isation	-4607
itoring	-4608
lighted	-4609
ourcing	-4610
rinivas	-4611
ruction	-4612
stances	-4613
tically	-4614
ustrial	-4615
▁Action	-4616
▁Bodhis	-4617
▁Bulgar	-4618
▁Cardew	-4619
▁Claude	-4620
▁Commun	-4621
▁Dennis	-4622
▁Design	-4623
▁Estate	-4624
▁Events	-4625
▁French	-4626
▁GitHub	-4627
▁Graham	-4628
▁Health	-4629
▁Hilton	-4630
▁Marvin	-4631
▁Minsky	-4632
▁Motion	-4633
▁Mumbai	-4634
▁Murthy	-4635
▁Newell	-4636
▁Promta	-4637
▁Robert	-4638
▁Secure	-4639
▁Series	-4640
▁Social	-4641
▁Thomas	-4642
▁Valley	-4643
▁Vancou	-4644
▁Vision	-4645
▁advers	-4646
▁allevi	-4647
▁almost	-4648
▁altern	-4649
▁always	-4650
▁annual	-4651
▁answer	-4652
▁attrib	-4653
▁awards	-4654
▁choice	-4655
▁circum	-4656
▁consum	-4657
▁course	-4658
▁detect	-4659
▁driven	-4660
▁effort	-4661
▁either	-4662
▁elimin	-4663
▁energy	-4664
▁engage	-4665
▁enroll	-4666
▁faster	-4667
▁gather	-4668
▁having	-4669
▁integr	-4670
▁issued	-4671
▁latter	-4672
▁layers	-4673
▁leader	-4674
▁levels	-4675
▁months	-4676
▁naming	-4677
▁notion	-4678
▁really	-4679
▁remain	-4680
▁robust	-4681
▁school	-4682
▁secret	-4683
▁senses	-4684
▁sexism	-4685
▁showed	-4686
▁signed	-4687
▁spoken	-4688
▁subsid	-4689
▁techno	-4690
▁territ	-4691
▁themes	-4692
▁thesis	-4693
▁trends	-4694
▁twenty	-4695
▁uncons	-4696
Palestin	-4697
formerly	-4698
graduate	-4699
specific	-4700
volution	-4701
▁Account	-4702
▁Airport	-4703
▁Angeles	-4704
▁Another	-4705
▁Blended	-4706
▁CAPTCHA	-4707
▁Chapter	-4708
▁College	-4709
▁Company	-4710
▁Content	-4711
▁Economy	-4712
▁Greplin	-4713
▁Hibbard	-4714
▁Hottest	-4715
▁Marquis	-4716
▁Nations	-4717
▁Natural	-4718
▁Neukart	-4719
▁Notable	-4720
▁Preface	-4721
▁Swinton	-4722
▁Through	-4723
▁Toronto	-4724
▁Ukraine	-4725
▁Various	-4726
▁Vaswani	-4727
▁Virtual	-4728
▁Wallace	-4729
▁Working	-4730
▁acceler	-4731
▁advisor	-4732
▁ambient	-4733
▁analogy	-4734
▁appoint	-4735
▁aspects	-4736
▁blended	-4737
▁broadly	-4738
▁changed	-4739
▁classif	-4740
▁conflic	-4741
▁consist	-4742
▁dataset	-4743
▁desires	-4744
▁despite	-4745
▁diverse	-4746
▁doctors	-4747
▁elegans	-4748
▁engaged	-4749
▁fulfill	-4750
▁further	-4751
▁himself	-4752
▁impacts	-4753
▁justice	-4754
▁largely	-4755
▁leaders	-4756
▁letters	-4757
▁mission	-4758
▁modeled	-4759
▁opening	-4760
▁passing	-4761
▁publish	-4762
▁purpose	-4763
▁quarter	-4764
▁receive	-4765
▁records	-4766
▁reports	-4767
▁reviews	-4768
▁robotic	-4769
▁schedul	-4770
▁shortly	-4771
▁signals	-4772
▁targets	-4773
▁variety	-4774
▁virtual	-4775
▁winning	-4776
abilistic	-4777
longright	-4778
utonomous	-4779
▁Administ	-4780
▁AllMusic	-4781
▁Crawford	-4782
▁DeepMind	-4783
▁Division	-4784
▁Embodied	-4785
▁Explorer	-4786
▁Magazine	-4787
▁Messages	-4788
▁Previous	-4789
▁Shanghai	-4790
▁Stockhol	-4791
▁Vladimir	-4792
▁WhatsApp	-4793
▁Williams	-4794
▁actually	-4795
▁adoption	-4796
▁agencies	-4797
▁analyzed	-4798
▁annually	-4799
▁appropri	-4800
▁attempts	-4801
▁becoming	-4802
▁benefits	-4803
▁campaign	-4804
▁capacity	-4805
▁compared	-4806
▁contents	-4807
▁datasets	-4808
▁distinct	-4809
▁document	-4810
▁expanded	-4811
▁feedback	-4812
▁finalist	-4813
▁findings	-4814
▁followed	-4815
▁graphics	-4816
▁improved	-4817
▁insights	-4818
▁inspired	-4819
▁invented	-4820
▁investor	-4821
▁involved	-4822
▁manifest	-4823
▁manufact	-4824
▁material	-4825
▁mathfrak	-4826
▁occurred	-4827
▁operates	-4828
▁overview	-4829
▁paradigm	-4830
▁powerful	-4831
▁presence	-4832
▁proposed	-4833
▁relation	-4834
▁removing	-4835
▁requires	-4836
▁reviewer	-4837
▁scholars	-4838
▁strength	-4839
▁textbook	-4840
electronic	-4841
▁Authority	-4842
▁Bobiverse	-4843
▁Classical	-4844
▁Cognitive	-4845
▁Economics	-4846
▁Edinburgh	-4847
▁Implement	-4848
▁Messenger	-4849
▁Personnel	-4850
▁Philosoph	-4851
▁Spielberg	-4852
▁Vancouver	-4853
▁announces	-4854
▁calculate	-4855
▁challenge	-4856
▁classical	-4857
▁combining	-4858
▁commander	-4859
▁committee	-4860
▁companion	-4861
▁conducted	-4862
▁constrain	-4863
▁construct	-4864
▁developer	-4865
▁discussed	-4866
▁effective	-4867
▁employees	-4868
▁engineers	-4869
▁experienc	-4870
▁fictional	-4871
▁fostering	-4872
▁improving	-4873
▁inference	-4874
▁instincts	-4875
▁investing	-4876
▁investors	-4877
▁involving	-4878
▁messaging	-4879
▁operating	-4880
▁organized	-4881
▁performed	-4882
▁positions	-4883
▁predicate	-4884
▁recommend	-4885
▁responses	-4886
Palestinian	-4887
▁Industrial	-4888
▁Leadership	-4889
▁associated	-4890
▁capability	-4891
▁creativity	-4892
▁definition	-4893
▁department	-4894
▁deployment	-4895
▁discussing	-4896
▁electrical	-4897
▁encryption	-4898
▁enterprise	-4899
▁evaluation	-4900
▁healthcare	-4901
▁hypothesis	-4902
▁introduced	-4903
▁preventing	-4904
▁programmer	-4905
▁regression	-4906
▁relatively	-4907
▁statistics	-4908
▁Bodhisattva	-4909
▁Philippines	-4910
▁acquisition	-4911
▁advertising	-4912
▁alternative	-4913
▁disciplines	-4914
▁discussions	-4915
▁distributed	-4916
▁extensively	-4917
▁highlighted	-4918
▁mathematics	-4919
▁necessarily	-4920
▁perspective	-4921
▁photography	-4922
▁potentially	-4923
▁publication	-4924
▁stereotypes	-4925
▁theoretical	-4926
▁unconscious	-4927
▁autonomously	-4928
▁conglomerate	-4929
▁entrepreneur	-4930
▁mathematical	-4931
▁neuroscience	-4932
▁participated	-4933
▁subsequently	-4934
longrightarrow	-4935
▁Philosophical	-4936
▁independently	-4937
▁probabilistic	-4938
▁technological	-4939
▁undergraduate	-4940
▁visualization	-4941
▁Implementation	-4942
▁Infrastructure	-4943
▁implementation	-4944
-9	-4945
.'	-4946
.)	-4947
.4	-4948
.5	-4949
0,	-4950
01	-4951
03	-4952
07	-4953
13	-4954
16	-4955
25	-4956
42	-4957
52	-4958
53	-4959
57	-4960
58	-4961
9)	-4962
AR	-4963
At	-4964
BA	-4965
CD	-4966
De	-4967
EV	-4968
GB	-4969
Go	-4970
IA	-4971
Is	-4972
Ms	-4973
Ne	-4974
RD	-4975
Sh	-4976
TV	-4977
Un	-4978
ZE	-4979
ek	-4980
ev	-4981
hx	-4982
hy	-4983
iy	-4984
ji	-4985
ju	-4986
ko	-4987
oT	-4988
ux	-4989
wh	-4990
ym	-4991
án	-4992
éb	-4993
éx	-4994
ón	-4995
▁;	-4996
▁_	-4997
▁و	-4998
▁あ	-4999
IO	-5000
Wh	-5001
いり	-5002
智能	-5003
-19	-5004
3),	-5005
4-1	-5006
Com	-5007
Don	-5008
Eng	-5009
IMA	-5010
RES	-5011
Sci	-5012
Top	-5013
Tub	-5014
Vel	-5015
abe	-5016
aff	-5017
ais	-5018
aka	-5019
ane	-5020
ati	-5021
aut	-5022
bar	-5023
bed	-5024
cha	-5025
ded	-5026
don	-5027
edr	-5028
egu	-5029
esc	-5030
gyp	-5031
har	-5032
hex	-5033
hoc	-5034
ias	-5035
ida	-5036
ids	-5037
ifa	-5038
ift	-5039
iki	-5040
iri	-5041
ius	-5042
jud	-5043
key	-5044
ksw	-5045
lee	-5046
len	-5047
lig	-5048
mad	-5049
min	-5050
mod	-5051
nat	-5052
new	-5053
oad	-5054
oca	-5055
oen	-5056
oke	-5057
ola	-5058
oom	-5059
oop	-5060
osp	-5061
oyd	-5062
pet	-5063
ply	-5064
ppy	-5065
pur	-5066
ray	-5067
ros	-5068
rup	-5069
sol	-5070
tag	-5071
tir	-5072
ugg	-5073
ula	-5074
wal	-5075
war	-5076
yan	-5077
ype	-5078
zil	-5079
▁15	-5080
▁21	-5081
▁27	-5082
▁3-	-5083
▁AL	-5084
▁BC	-5085
▁Bu	-5086
▁CD	-5087
▁Ca	-5088
▁Cz	-5089
▁EU	-5090
▁GQ	-5091
▁Ji	-5092
▁Ky	-5093
▁Lo	-5094
▁NA	-5095
▁NY	-5096
▁Ol	-5097
▁Os	-5098
▁Vi	-5099
MOR	-5100
PEG	-5101
VID	-5102
uki	-5103
▁du	-5104
▁et	-5105
▁pp	-5106
▁愛梨	-5107
▁愛里	-5108
AIMA	-5109
Arab	-5110
Chat	-5111
Chun	-5112
JAIR	-5113
Most	-5114
Part	-5115
Port	-5116
Wave	-5117
abad	-5118
ache	-5119
adel	-5120
agAI	-5121
ager	-5122
airy	-5123
aive	-5124
aked	-5125
also	-5126
amak	-5127
anie	-5128
anne	-5129
anta	-5130
anth	-5131
arge	-5132
atis	-5133
ball	-5134
bara	-5135
baum	-5136
ceed	-5137
cind	-5138
conn	-5139
ders	-5140
ears	-5141
ebec	-5142
edIn	-5143
eech	-5144
eers	-5145
emic	-5146
enna	-5147
erom	-5148
fort	-5149
greg	-5150
held	-5151
hnan	-5152
iate	-5153
ibly	-5154
iche	-5155
igan	-5156
ilem	-5157
ille	-5158
imed	-5159
inar	-5160
inem	-5161
ints	-5162
irth	-5163
itty	-5164
ivor	-5165
izon	-5166
just	-5167
kind	-5168
lled	-5169
lock	-5170
mann	-5171
mill	-5172
ocra	-5173
oday	-5174
ogue	-5175
ohan	-5176
onic	-5177
orge	-5178
orre	-5179
ovan	-5180
part	-5181
pass	-5182
phia	-5183
pler	-5184
plex	-5185
pper	-5186
rees	-5187
rics	-5188
rins	-5189
rive	-5190
ryan	-5191
star	-5192
symb	-5193
uing	-5194
vert	-5195
vure	-5196
year	-5197
yond	-5198
▁09,	-5199
IME	-5200
▁ال	-5201
Tube	-5202
abyt	-5203
rugg	-5204
ébec	-5205
▁10,	-5206
▁16,	-5207
▁AEV	-5208
▁AIX	-5209
▁Aff	-5210
▁Ass	-5211
▁Aud	-5212
▁BBC	-5213
▁Ban	-5214
▁Bas	-5215
▁Big	-5216
▁But	-5217
▁Cot	-5218
▁Cov	-5219
▁Dub	-5220
▁End	-5221
▁Ent	-5222
▁Fab	-5223
▁Fre	-5224
▁Hal	-5225
▁Hel	-5226
▁Hob	-5227
▁Ill	-5228
▁Kam	-5229
▁Kin	-5230
▁Kub	-5231
▁Law	-5232
▁MEG	-5233
▁Mad	-5234
▁Med	-5235
▁Mem	-5236
▁Min	-5237
▁Old	-5238
▁Ont	-5239
▁PRI	-5240
▁Pan	-5241
▁Pot	-5242
▁Ray	-5243
▁Rel	-5244
▁Rom	-5245
▁Rus	-5246
▁Sav	-5247
▁Sen	-5248
▁Sky	-5249
▁Sun	-5250
▁Sus	-5251
▁Syn	-5252
▁Tal	-5253
▁Tel	-5254
▁Tic	-5255
▁Vol	-5256
▁Way	-5257
▁Web	-5258
▁Why	-5259
▁ads	-5260
▁age	-5261
▁aid	-5262
▁big	-5263
▁bit	-5264
▁day	-5265
▁def	-5266
▁don	-5267
▁dub	-5268
▁emo	-5269
▁emp	-5270
▁far	-5271
▁flo	-5272
▁fre	-5273
▁fuc	-5274
▁got	-5275
▁iOS	-5276
▁jun	-5277
▁lic	-5278
▁max	-5279
▁med	-5280
▁mer	-5281
▁nor	-5282
▁omn	-5283
▁rac	-5284
▁rep	-5285
▁saw	-5286
▁tax	-5287
▁tel	-5288
▁tra	-5289
▁upd	-5290
▁あいり	-5291
-2016	-5292
-2018	-5293
-2022	-5294
-2025	-5295
Brain	-5296
Dying	-5297
SDAIA	-5298
Scape	-5299
MORPG	-5300
acing	-5301
ackle	-5302
akers	-5303
allel	-5304
alore	-5305
ambig	-5306
ament	-5307
andar	-5308
anted	-5309
anten	-5310
arded	-5311
arial	-5312
arian	-5313
asons	-5314
aters	-5315
atson	-5316
ausal	-5317
aysia	-5318
being	-5319
chief	-5320
cient	-5321
ctive	-5322
ebrew	-5323
echre	-5324
edman	-5325
eekly	-5326
eline	-5327
emini	-5328
erted	-5329
estic	-5330
eters	-5331
etric	-5332
fined	-5333
flows	-5334
iance	-5335
ickly	-5336
idden	-5337
ident	-5338
iller	-5339
inson	-5340
inyin	-5341
issue	-5342
ister	-5343
itize	-5344
known	-5345
leans	-5346
merce	-5347
oding	-5348
oenix	-5349
ordan	-5350
orous	-5351
oseph	-5352
otics	-5353
oting	-5354
otype	-5355
ounts	-5356
owned	-5357
pping	-5358
reath	-5359
riday	-5360
rival	-5361
rowds	-5362
seudo	-5363
spect	-5364
super	-5365
uning	-5366
uracy	-5367
urati	-5368
urisd	-5369
uster	-5370
éxico	-5371
▁1978	-5372
▁1983	-5373
▁1984	-5374
▁1995	-5375
▁1997	-5376
▁2003	-5377
▁Bill	-5378
▁Both	-5379
▁Carl	-5380
▁Coal	-5381
▁Coin	-5382
▁Dead	-5383
▁Egyp	-5384
▁Exch	-5385
▁Fall	-5386
▁Food	-5387
▁GPUs	-5388
▁Gold	-5389
▁Guns	-5390
▁ICLR	-5391
▁LAPD	-5392
▁LIMA	-5393
▁Lara	-5394
▁Lect	-5395
▁Levy	-5396
▁Line	-5397
▁Link	-5398
▁Look	-5399
▁Marc	-5400
▁Meth	-5401
▁Most	-5402
▁News	-5403
▁Note	-5404
▁ORES	-5405
▁Park	-5406
▁Path	-5407
▁Pion	-5408
▁Plan	-5409
▁Prac	-5410
▁Prof	-5411
▁Rash	-5412
▁Sams	-5413
▁Samy	-5414
▁Spec	-5415
▁Star	-5416
▁Such	-5417
▁Tour	-5418
▁Unit	-5419
▁Upon	-5420
▁Very	-5421
▁Vine	-5422
▁West	-5423
▁asks	-5424
▁cars	-5425
▁cast	-5426
▁clos	-5427
▁club	-5428
▁comb	-5429
▁come	-5430
▁core	-5431
▁diss	-5432
▁easy	-5433
▁ethn	-5434
▁fair	-5435
▁farm	-5436
▁felt	-5437
▁fine	-5438
▁flag	-5439
▁girl	-5440
▁grew	-5441
▁hall	-5442
▁idol	-5443
▁kill	-5444
▁link	-5445
▁loop	-5446
▁mand	-5447
▁move	-5448
▁past	-5449
▁path	-5450
▁podc	-5451
▁prem	-5452
▁quan	-5453
▁rise	-5454
▁rose	-5455
▁seed	-5456
▁sett	-5457
▁situ	-5458
▁skep	-5459
▁slee	-5460
▁soph	-5461
▁star	-5462
▁stor	-5463
▁suit	-5464
▁summ	-5465
▁susp	-5466
▁talk	-5467
▁tied	-5468
▁vary	-5469
▁vend	-5470
▁word	-5471
▁youn	-5472
▁zero	-5473
Arabic	-5474
Brainz	-5475
Veliar	-5476
abytes	-5477
angers	-5478
ardian	-5479
ariant	-5480
asters	-5481
atable	-5482
author	-5483
boards	-5484
bourne	-5485
ceding	-5486
cedure	-5487
cepted	-5488
design	-5489
ectors	-5490
editor	-5491
edruth	-5492
ellect	-5493
formed	-5494
herent	-5495
icated	-5496
icture	-5497
ilmico	-5498
inator	-5499
itally	-5500
lement	-5501
omated	-5502
ossary	-5503
person	-5504
rative	-5505
review	-5506
rolled	-5507
thetic	-5508
tician	-5509
tition	-5510
uasive	-5511
ulates	-5512
undred	-5513
ussion	-5514
ynamic	-5515
ystems	-5516
▁2000,	-5517
▁2000.	-5518
▁2001,	-5519
▁2004,	-5520
▁2004.	-5521
▁2010.	-5522
▁2011,	-5523
▁2011.	-5524
▁2023.	-5525
▁2029.	-5526
▁ALICE	-5527
▁Aband	-5528
▁Aerom	-5529
▁Agent	-5530
▁Andre	-5531
▁Aphex	-5532
▁Biden	-5533
▁Black	-5534
▁Bryan	-5535
▁COVID	-5536
▁Chung	-5537
▁Civil	-5538
▁Cohen	-5539
▁Crowd	-5540
▁Czech	-5541
▁Davao	-5542
▁Defin	-5543
▁Detox	-5544
▁Elite	-5545
▁Exhib	-5546
▁Fairy	-5547
▁Floyd	-5548
▁Forum	-5549
▁Gebru	-5550
▁Guide	-5551
▁Hague	-5552
▁Haifa	-5553
▁Happy	-5554
▁Harry	-5555
▁Infin	-5556
▁Integ	-5557
▁Kitty	-5558
▁Maria	-5559
▁Mario	-5560
▁Moroc	-5561
▁Neuro	-5562
▁North	-5563
▁Paris	-5564
▁Pegas	-5565
▁Plant	-5566
▁Psych	-5567
▁Pulse	-5568
▁River	-5569
▁Rohan	-5570
▁Rosen	-5571
▁Rules	-5572
▁Scary	-5573
▁Solve	-5574
▁Steph	-5575
▁Steve	-5576
▁Studi	-5577
▁Suphx	-5578
▁Syria	-5579
▁Thing	-5580
▁Tsing	-5581
▁White	-5582
▁Woods	-5583
▁Words	-5584
▁activ	-5585
▁advoc	-5586
▁agric	-5587
▁annot	-5588
▁aspir	-5589
▁birth	-5590
▁black	-5591
▁cases	-5592
▁cause	-5593
▁deals	-5594
▁dilem	-5595
▁discr	-5596
▁doesn	-5597
▁doing	-5598
▁eight	-5599
▁empir	-5600
▁estim	-5601
▁exact	-5602
▁faced	-5603
▁favor	-5604
▁fully	-5605
▁heard	-5606
▁helps	-5607
▁hired	-5608
▁holds	-5609
▁holog	-5610
▁honor	-5611
▁horri	-5612
▁hours	-5613
▁ideas	-5614
▁incub	-5615
▁label	-5616
▁layer	-5617
▁leave	-5618
▁lines	-5619
▁lists	-5620
▁manip	-5621
▁micro	-5622
▁mimic	-5623
▁oblig	-5624
▁pages	-5625
▁premi	-5626
▁proof	-5627
▁reach	-5628
▁realm	-5629
▁resid	-5630
▁seman	-5631
▁seven	-5632
▁shown	-5633
▁small	-5634
▁songs	-5635
▁spons	-5636
▁stake	-5637
▁stars	-5638
▁tells	-5639
▁thous	-5640
▁track	-5641
▁troph	-5642
▁truck	-5643
▁truly	-5644
▁volum	-5645
▁women	-5646
▁worth	-5647
Chinese	-5648
achelor	-5649
driving	-5650
edicine	-5651
istance	-5652
kswagen	-5653
lecting	-5654
licated	-5655
machine	-5656
mediate	-5657
natural	-5658
onsense	-5659
petuate	-5660
playing	-5661
plexity	-5662
rategic	-5663
ulating	-5664
ultural	-5665
▁1989),	-5666
▁Aldiss	-5667
▁Andrew	-5668
▁Aristo	-5669
▁Ashley	-5670
▁Austin	-5671
▁Before	-5672
▁Behavi	-5673
▁Boston	-5674
▁Brazil	-5675
▁Causal	-5676
▁Contro	-5677
▁Course	-5678
▁Doctor	-5679
▁During	-5680
▁Essays	-5681
▁Fabian	-5682
▁FlagAI	-5683
▁Friday	-5684
▁Gemini	-5685
▁George	-5686
▁German	-5687
▁Groups	-5688
▁Having	-5689
▁Hinton	-5690
▁Humans	-5691
▁Invest	-5692
▁Island	-5693
▁Joanna	-5694
▁Jordan	-5695
▁Leiden	-5696
▁Little	-5697
▁Martin	-5698
▁Master	-5699
▁Pearce	-5700
▁Plural	-5701
▁Polish	-5702
▁Princi	-5703
▁Putins	-5704
▁Quebec	-5705
▁Québec	-5706
▁Ruslan	-5707
▁Russia	-5708
▁Safety	-5709
▁Secret	-5710
▁Steven	-5711
▁Ticino	-5712
▁Unlike	-5713
▁Vienna	-5714
▁Warner	-5715
▁Watson	-5716
▁WeChat	-5717
▁actors	-5718
▁adding	-5719
▁affect	-5720
▁aggreg	-5721
▁attend	-5722
▁authen	-5723
▁behave	-5724
▁beyond	-5725
▁biolog	-5726
▁bodies	-5727
▁brings	-5728
▁causes	-5729
▁center	-5730
▁colors	-5731
▁compos	-5732
▁compul	-5733
▁conver	-5734
▁corpor	-5735
▁correl	-5736
▁credit	-5737
▁crowds	-5738
▁depart	-5739
▁diffic	-5740
▁drones	-5741
▁earned	-5742
▁easier	-5743
▁elicit	-5744
▁entity	-5745
▁errors	-5746
▁except	-5747
▁extent	-5748
▁higher	-5749
▁highly	-5750
▁hiring	-5751
▁honors	-5752
▁inspir	-5753
▁inters	-5754
▁judged	-5755
▁junior	-5756
▁listen	-5757
▁little	-5758
▁logics	-5759
▁mathrm	-5760
▁nation	-5761
▁nearly	-5762
▁needed	-5763
▁occurs	-5764
▁pickup	-5765
▁pinyin	-5766
▁poetry	-5767
▁prefer	-5768
▁prejud	-5769
▁prompt	-5770
▁pursue	-5771
▁racial	-5772
▁ranked	-5773
▁reform	-5774
▁revise	-5775
▁shared	-5776
▁simply	-5777
▁skills	-5778
▁stated	-5779
▁strugg	-5780
▁tackle	-5781
▁taking	-5782
▁talent	-5783
▁though	-5784
▁threat	-5785
▁unable	-5786
▁unique	-5787
▁vector	-5788
▁weight	-5789
▁writer	-5790
December	-5791
adelphia	-5792
computer	-5793
ederated	-5794
entioned	-5795
extended	-5796
fortably	-5797
friendly	-5798
inematic	-5799
isations	-5800
reviewed	-5801
symbolic	-5802
titution	-5803
violence	-5804
▁Audible	-5805
▁Barbara	-5806
▁Because	-5807
▁Defense	-5808
▁Denmark	-5809
▁Edition	-5810
▁Ethical	-5811
▁Fellows	-5812
▁Finding	-5813
▁Finland	-5814
▁Finnish	-5815
▁Herbert	-5816
▁Journey	-5817
▁Kubrick	-5818
▁Mathema	-5819
▁Meaning	-5820
▁Methods	-5821
▁Network	-5822
▁NeurIPS	-5823
▁Officer	-5824
▁Ontario	-5825
▁Orleans	-5826
▁Phoenix	-5827
▁Release	-5828
▁Roberts	-5829
▁Russell	-5830
▁Samsung	-5831
▁Spanish	-5832
▁Studies	-5833
▁Thought	-5834
▁Wayback	-5835
▁Winston	-5836
▁YouTube	-5837
▁acquire	-5838
▁adopted	-5839
▁allowed	-5840
▁analyze	-5841
▁beliefs	-5842
▁biology	-5843
▁categor	-5844
▁centers	-5845
▁central	-5846
▁changes	-5847
▁chatter	-5848
▁climate	-5849
▁command	-5850
▁compute	-5851
▁console	-5852
▁decided	-5853
▁defined	-5854
▁deliber	-5855
▁devices	-5856
▁domains	-5857
▁driving	-5858
▁economy	-5859
▁encoura	-5860
▁engages	-5861
▁enhance	-5862
▁examine	-5863
▁exhibit	-5864
▁explore	-5865
▁extract	-5866
▁factors	-5867
▁finding	-5868
▁gravure	-5869
▁growing	-5870
▁hacking	-5871
▁horizon	-5872
▁insight	-5873
▁install	-5874
▁invited	-5875
▁learned	-5876
▁markets	-5877
▁marking	-5878
▁medical	-5879
▁meeting	-5880
▁morning	-5881
▁offices	-5882
▁outcome	-5883
▁outputs	-5884
▁overall	-5885
▁pioneer	-5886
▁posting	-5887
▁prompts	-5888
▁protect	-5889
▁protest	-5890
▁quickly	-5891
▁reactiv	-5892
▁readers	-5893
▁reading	-5894
▁reality	-5895
▁reprodu	-5896
▁request	-5897
▁rescind	-5898
▁revenue	-5899
▁serving	-5900
▁showing	-5901
▁simpler	-5902
▁surpass	-5903
▁updated	-5904
▁variant	-5905
▁vehicle	-5906
▁whereas	-5907
economics	-5908
ectionist	-5909
fficiency	-5910
including	-5911
isticated	-5912
knowledge	-5913
operation	-5914
portation	-5915
rinivasan	-5916
titioners	-5917
▁Advanced	-5918
▁Autechre	-5919
▁Bayesian	-5920
▁Bulgaria	-5921
▁Citation	-5922
▁Examples	-5923
▁Exchange	-5924
▁Friedman	-5925
▁Glossary	-5926
▁Guardian	-5927
▁Krishnan	-5928
▁LinkedIn	-5929
▁Malaysia	-5930
▁MetaWorm	-5931
▁Michigan	-5932
▁Products	-5933
▁Response	-5934
▁Robotics	-5935
▁Sanskrit	-5936
▁Selected	-5937
▁SoftBank	-5938
▁Strategy	-5939
▁Timeline	-5940
▁Tsinghua	-5941
▁Universe	-5942
▁accepted	-5943
▁accuracy	-5944
▁actively	-5945
▁advances	-5946
▁applying	-5947
▁audience	-5948
▁breaking	-5949
▁classify	-5950
▁comedian	-5951
▁commonly	-5952
▁conflict	-5953
▁conquest	-5954
▁consider	-5955
▁creative	-5956
▁customer	-5957
▁database	-5958
▁dataflow	-5959
▁debaters	-5960
▁deployed	-5961
▁detailed	-5962
▁detected	-5963
▁division	-5964
▁domestic	-5965
▁dominant	-5966
▁emotions	-5967
▁enhanced	-5968
▁ensuring	-5969
▁everyone	-5970
▁explored	-5971
▁flagship	-5972
▁formerly	-5973
▁gathered	-5974
▁globally	-5975
▁handheld	-5976
▁implicit	-5977
▁interact	-5978
▁interpre	-5979
▁invested	-5980
▁leverage	-5981
▁location	-5982
▁majority	-5983
▁memorand	-5984
▁negative	-5985
▁outcomes	-5986
▁parallel	-5987
▁partners	-5988
▁presents	-5989
▁produces	-5990
▁provider	-5991
▁pursuing	-5992
▁reflects	-5993
▁relevant	-5994
▁reliably	-5995
▁replaced	-5996
▁required	-5997
▁separate	-5998
▁simulate	-5999
▁suitable	-6000
▁supports	-6001
▁taxonomy	-6002
▁tendency	-6003
▁trillion	-6004
▁valuable	-6005
▁versions	-6006
▁visiting	-6007
▁youngest	-6008
Autonomous	-6009
accessible	-6010
itarianism	-6011
olutionary	-6012
timization	-6013
▁Abandoned	-6014
▁Automated	-6015
▁Bangalore	-6016
▁Christian	-6017
▁Cognition	-6018
▁Covariant	-6019
▁Debatable	-6020
▁Discovery	-6021
▁Intercept	-6022
▁Judiciary	-6023
▁Knowledge	-6024
▁Melbourne	-6025
▁Practical	-6026
▁Stockholm	-6027
▁Structure	-6028
▁Universit	-6029
▁abilities	-6030
▁addresses	-6031
▁algorithm	-6032
▁alongside	-6033
▁animation	-6034
▁arguments	-6035
▁attempted	-6036
▁campaigns	-6037
▁causality	-6038
▁completed	-6039
▁concerned	-6040
▁contained	-6041
▁customers	-6042
▁delivered	-6043
▁designers	-6044
▁digitally	-6045
▁discusses	-6046
▁employing	-6047
▁establish	-6048
▁explained	-6049
▁extensive	-6050
▁framework	-6051
▁identific	-6052
▁imitation	-6053
▁installed	-6054
▁interests	-6055
▁keyboards	-6056
▁launching	-6057
▁materials	-6058
▁musicians	-6059
▁officials	-6060
▁otherwise	-6061
▁partnered	-6062
▁promoting	-6063
▁promotion	-6064
▁prompting	-6065
▁psycholog	-6066
▁reduction	-6067
▁reflected	-6068
▁semantics	-6069
▁simulated	-6070
▁sometimes	-6071
▁standards	-6072
▁technique	-6073
▁terabytes	-6074
▁thousands	-6075
▁transcend	-6076
▁universal	-6077
▁valuation	-6078
▁waypoints	-6079
ambiguation	-6080
▁Aeroméxico	-6081
▁Exhibition	-6082
▁Fellowship	-6083
▁Generation	-6084
▁Initiative	-6085
▁Innovation	-6086
▁Investment	-6087
▁Production	-6088
▁Psychology	-6089
▁Television	-6090
▁Tournament	-6091
▁Volkswagen	-6092
▁adaptation	-6093
▁assistants	-6094
▁classifier	-6095
▁commitment	-6096
▁comparable	-6097
▁complexity	-6098
▁consisting	-6099
▁containing	-6100
▁controlled	-6101
▁criticises	-6102
▁determined	-6103
▁evaluating	-6104
▁everything	-6105
▁experiment	-6106
▁facilitate	-6107
▁identifies	-6108
▁interested	-6109
▁literature	-6110
▁motivation	-6111
▁multimedia	-6112
▁officially	-6113
▁opposition	-6114
▁parameters	-6115
▁perpetuate	-6116
▁persuasive	-6117
▁phenomenon	-6118
▁prediction	-6119
▁presidency	-6120
▁programmed	-6121
▁properties	-6122
▁recognized	-6123
▁references	-6124
▁resistance	-6125
▁satisfying	-6126
▁signatures	-6127
▁soundtrack	-6128
▁specifying	-6129
▁systematic	-6130
▁ultimately	-6131
▁Corporation	-6132
▁Electronics	-6133
▁Existential	-6134
▁Homomorphic	-6135
▁MusicBrainz	-6136
▁Pegasystems	-6137
▁Recognition	-6138
▁WikiProject	-6139
▁adversarial	-6140
▁appropriate	-6141
▁association	-6142
▁combination	-6143
▁comfortably	-6144
▁complicated	-6145
▁consciously	-6146
▁demonstrate	-6147
▁departments	-6148
▁distinction	-6149
▁distinguish	-6150
▁effectively	-6151
▁homomorphic	-6152
▁identifying	-6153
▁initiatives	-6154
▁innovations	-6155
▁integrating	-6156
▁observation	-6157
▁personality	-6158
▁regulations	-6159
▁replacement	-6160
▁smartphones	-6161
▁statistical	-6162
▁stimulation	-6163
▁supervision	-6164
▁territories	-6165
▁transparent	-6166
▁Entrepreneur	-6167
▁Organisation	-6168
▁Philadelphia	-6169
▁Surveillance	-6170
▁anticipation	-6171
▁anticipatory	-6172
▁constitution	-6173
▁establishing	-6174
▁experimental	-6175
▁optimization	-6176
▁participants	-6177
▁personalized	-6178
▁shareholders	-6179
▁subcommittee	-6180
▁transparency	-6181
▁Computational	-6182
▁Mathematician	-6183
▁Reinforcement	-6184
▁architectures	-6185
▁characterized	-6186
▁characterizes	-6187
▁circumstances	-6188
▁conversations	-6189
▁crowdsourcing	-6190
▁demonstration	-6191
▁developmental	-6192
▁opportunities	-6193
▁organisations	-6194
▁practitioners	-6195
▁significantly	-6196
▁sophisticated	-6197
▁Administration	-6198
▁identification	-6199
▁interpretation	-6200
▁transportation	-6201
tnlongrightarrow	-6202
▁implementations	-6203
▁recommendations	-6204
▁representations	-6205
▁standardization	-6206
!"	-6207
";	-6208
',	-6209
';	-6210
)-	-6211
):	-6212
-4	-6213
-8	-6214
.2	-6215
.9	-6216
02	-6217
04	-6218
05	-6219
06	-6220
08	-6221
17	-6222
2,	-6223
28	-6224
37	-6225
46	-6226
47	-6227
5-	-6228
51	-6229
6)	-6230
75	-6231
89	-6232
?"	-6233
AC	-6234
AL	-6235
An	-6236
BI	-6237
BS	-6238
CG	-6239
CL	-6240
CM	-6241
CN	-6242
Cr	-6243
DB	-6244
Db	-6245
ER	-6246
FL	-6247
GE	-6248
GR	-6249
GX	-6250
It	-6251
La	-6252
MB	-6253
MC	-6254
MP	-6255
OC	-6256
Op	-6257
PA	-6258
Pa	-6259
Ph	-6260
Pi	-6261
Pr	-6262
Re	-6263
SN	-6264
St	-6265
Su	-6266
TU	-6267
UD	-6268
UN	-6269
aS	-6270
br	-6271
bu	-6272
dé	-6273
ei	-6274
ez	-6275
fe	-6276
ga	-6277
gr	-6278
ki	-6279
lt	-6280
ns	-6281
po	-6282
qa	-6283
ré	-6284
td	-6285
tz	-6286
uz	-6287
we	-6288
ya	-6289
yg	-6290
Éc	-6291
àn	-6292
ìn	-6293
"):	-6294
-01	-6295
-12	-6296
.26	-6297
202	-6298
6),	-6299
do	-6300
7.5	-6301
701	-6302
8),	-6303
ACS	-6304
AIs	-6305
Are	-6306
CEP	-6307
CES	-6308
Cap	-6309
EEE	-6310
Int	-6311
Kee	-6312
Man	-6313
OEC	-6314
Per	-6315
Rem	-6316
San	-6317
Sur	-6318
abs	-6319
acc	-6320
adc	-6321
ahe	-6322
aid	-6323
akk	-6324
arh	-6325
ask	-6326
ato	-6327
avi	-6328
aya	-6329
ban	-6330
bia	-6331
bit	-6332
bod	-6333
bon	-6334
cal	-6335
can	-6336
chi	-6337
cin	-6338
cle	-6339
con	-6340
den	-6341
eet	-6342
egg	-6343
ein	-6344
ela	-6345
elo	-6346
emy	-6347
eno	-6348
esh	-6349
ete	-6350
fil	-6351
fol	-6352
ftp	-6353
fus	-6354
gal	-6355
ges	-6356
gma	-6357
hop	-6358
iec	-6359
ils	-6360
ilt	-6361
ira	-6362
ita	-6363
joy	-6364
lam	-6365
lar	-6366
let	-6367
loo	-6368
lyn	-6369
mas	-6370
mid	-6371
nit	-6372
ols	-6373
omy	-6374
owd	-6375
pus	-6376
que	-6377
raq	-6378
reh	-6379
ren	-6380
rik	-6381
ror	-6382
sch	-6383
ski	-6384
sum	-6385
tra	-6386
uan	-6387
ulk	-6388
urb	-6389
ush	-6390
uto	-6391
utt	-6392
uty	-6393
vad	-6394
van	-6395
vig	-6396
wen	-6397
wer	-6398
wes	-6399
equ	-6400
izz	-6401
nap	-6402
obb	-6403
rub	-6404
voc	-6405
xic	-6406
édé	-6407
▁("	-6408
▁--	-6409
▁31	-6410
▁44	-6411
▁5"	-6412
▁6,	-6413
▁6:	-6414
▁9,	-6415
▁Af	-6416
▁BS	-6417
▁Ba	-6418
▁Bi	-6419
▁Bě	-6420
▁CR	-6421
▁Ek	-6422
▁Fe	-6423
▁Hy	-6424
▁IM	-6425
▁Il	-6426
▁Ir	-6427
▁Je	-6428
▁Me	-6429
▁Mu	-6430
▁Ox	-6431
▁PR	-6432
▁Py	-6433
▁RD	-6434
▁Rh	-6435
▁SP	-6436
▁SU	-6437
▁Sk	-6438
▁Sv	-6439
▁TA	-6440
▁Tu	-6441
▁WB	-6442
▁ep	-6443
▁ic	-6444
▁my	-6445
▁od	-6446
▁pe	-6447
▁sl	-6448
..."	-6449
1143	-6450
200.	-6451
Best	-6452
Code	-6453
Free	-6454
List	-6455
OECD	-6456
Tong	-6457
ades	-6458
adol	-6459
aker	-6460
akia	-6461
amas	-6462
aney	-6463
anks	-6464
anot	-6465
anup	-6466
aras	-6467
ardy	-6468
arts	-6469
asal	-6470
atar	-6471
atus	-6472
auti	-6473
awns	-6474
beth	-6475
cell	-6476
chio	-6477
disc	-6478
eart	-6479
ects	-6480
eles	-6481
elic	-6482
elod	-6483
emed	-6484
empl	-6485
enia	-6486
enor	-6487
eras	-6488
erge	-6489
eria	-6490
erma	-6491
esha	-6492
etal	-6493
ette	-6494
fied	-6495
fund	-6496
game	-6497
gate	-6498
gent	-6499
ifi	-6500
ika	-6501
off	-6502
ruz	-6503
see	-6504
▁6.	-6505
▁VR	-6506
4020	-6507
Alic	-6508
Call	-6509
airs	-6510
alse	-6511
apse	-6512
eeks	-6513
gium	-6514
goes	-6515
hand	-6516
have	-6517
home	-6518
host	-6519
ians	-6520
icas	-6521
ices	-6522
icho	-6523
icht	-6524
ideg	-6525
iers	-6526
ifer	-6527
ifty	-6528
igad	-6529
iger	-6530
iker	-6531
ikin	-6532
ilan	-6533
ilot	-6534
inas	-6535
inbo	-6536
inez	-6537
inic	-6538
inks	-6539
inoc	-6540
ioni	-6541
irel	-6542
itch	-6543
ithe	-6544
itis	-6545
izen	-6546
kins	-6547
kova	-6548
lets	-6549
ligh	-6550
macy	-6551
made	-6552
mind	-6553
ming	-6554
mith	-6555
more	-6556
ndom	-6557
neys	-6558
odal	-6559
okes	-6560
omir	-6561
ompl	-6562
onel	-6563
onim	-6564
ools	-6565
ores	-6566
orie	-6567
oris	-6568
orow	-6569
orse	-6570
oses	-6571
osts	-6572
otle	-6573
ouge	-6574
ouis	-6575
pled	-6576
plit	-6577
poss	-6578
quet	-6579
race	-6580
reet	-6581
rets	-6582
ried	-6583
roit	-6584
rong	-6585
rook	-6586
rous	-6587
stac	-6588
step	-6589
such	-6590
sule	-6591
text	-6592
thes	-6593
tise	-6594
tize	-6595
ture	-6596
uart	-6597
ulia	-6598
unch	-6599
)".	-6600
1).	-6601
111	-6602
8).	-6603
9).	-6604
Lav	-6605
cry	-6606
gue	-6607
ovo	-6608
▁36	-6609
20).	-6610
CAIO	-6611
ISMA	-6612
astr	-6613
etit	-6614
ovis	-6615
priv	-6616
ught	-6617
undi	-6618
urer	-6619
utor	-6620
uven	-6621
viet	-6622
wall	-6623
with	-6624
yuàn	-6625
zing	-6626
édér	-6627
▁"30	-6628
▁1.2	-6629
▁109	-6630
▁180	-6631
▁195	-6632
▁20,	-6633
▁250	-6634
▁30-	-6635
▁3:3	-6636
▁ACM	-6637
▁Alt	-6638
▁Apa	-6639
▁Art	-6640
▁Atl	-6641
▁Ber	-6642
▁Bru	-6643
▁COO	-6644
▁Cam	-6645
▁Cle	-6646
▁Cop	-6647
▁Cro	-6648
▁DES	-6649
▁Des	-6650
▁Dis	-6651
▁Dol	-6652
▁Dul	-6653
▁Fac	-6654
▁Fig	-6655
▁Gen	-6656
▁Gig	-6657
▁Gum	-6658
▁Hon	-6659
▁IDF	-6660
▁Ice	-6661
▁Iva	-6662
▁Jan	-6663
▁Jew	-6664
▁Jus	-6665
▁Kur	-6666
▁Lag	-6667
▁Lat	-6668
▁Let	-6669
▁MUD	-6670
▁Mas	-6671
▁Mes	-6672
▁Mik	-6673
▁Mim	-6674
▁Mob	-6675
▁Mos	-6676
▁Nag	-6677
▁Nav	-6678
▁Nov	-6679
▁OLM	-6680
▁Obs	-6681
▁Our	-6682
▁Pag	-6683
▁Por	-6684
▁Rap	-6685
▁Reg	-6686
▁Rid	-6687
▁Ris	-6688
▁Ros	-6689
▁Roy	-6690
▁Sob	-6691
▁Spr	-6692
▁Squ	-6693
▁Suc	-6694
▁Tam	-6695
▁Tit	-6696
▁Top	-6697
▁Tre	-6698
▁Typ	-6699
-4.	-6700
-67	-6701
7-2	-6702
All	-6703
BAAI	-6704
ease	-6705
ieva	-6706
lied	-6707
pted	-6708
rely	-6709
rica	-6710
stim	-6711
turn	-6712
▁Bio	-6713
▁Emu	-6714
▁Joy	-6715
▁Key	-6716
▁USA	-6717
▁Vir	-6718
▁Wil	-6719
▁Win	-6720
▁Yet	-6721
▁Yos	-6722
▁Zed	-6723
▁ago	-6724
▁ask	-6725
▁bad	-6726
▁boy	-6727
▁car	-6728
▁cas	-6729
▁cat	-6730
▁cut	-6731
▁dol	-6732
▁dou	-6733
▁dri	-6734
▁ear	-6735
▁era	-6736
▁eup	-6737
▁fed	-6738
▁fit	-6739
▁fri	-6740
▁gre	-6741
▁hal	-6742
▁hit	-6743
▁ill	-6744
▁kit	-6745
▁mid	-6746
▁mus	-6747
▁pol	-6748
▁pus	-6749
▁put	-6750
▁sel	-6751
▁sem	-6752
▁sho	-6753
▁sil	-6754
▁ste	-6755
▁tem	-6756
▁thr	-6757
▁tim	-6758
▁tre	-6759
▁unf	-6760
▁unw	-6761
▁upl	-6762
▁ven	-6763
-1992	-6764
-1996	-6765
-2000	-6766
-2010	-6767
-2012	-6768
-2020	-6769
-2024	-6770
-24-1	-6771
-4020	-6772
-6710	-6773
China	-6774
First	-6775
Human	-6776
IJCAI	-6777
RACES	-6778
Super	-6779
Today	-6780
abato	-6781
about	-6782
actan	-6783
activ	-6784
afael	-6785
antas	-6786
antir	-6787
apted	-6788
ardra	-6789
arked	-6790
arted	-6791
assan	-6792
asses	-6793
astro	-6794
athan	-6795
board	-6796
books	-6797
brain	-6798
chain	-6799
oya	-6800
sAt	-6801
▁90	-6802
BAIR	-6803
Disc	-6804
June	-6805
anni	-6806
anny	-6807
cise	-6808
eena	-6809
haps	-6810
itsa	-6811
ledg	-6812
rict	-6813
▁Amb	-6814
▁buy	-6815
▁lib	-6816
▁rad	-6817
aware	-6818
chair	-6819
cking	-6820
cular	-6821
eated	-6822
egold	-6823
eller	-6824
emann	-6825
ensic	-6826
entor	-6827
ercat	-6828
ersey	-6829
essen	-6830
ework	-6831
faces	-6832
folio	-6833
fully	-6834
gress	-6835
horia	-6836
icate	-6837
icorn	-6838
iffer	-6839
ilers	-6840
inate	-6841
indel	-6842
index	-6843
indow	-6844
ineva	-6845
infor	-6846
ining	-6847
inted	-6848
iques	-6849
isons	-6850
itici	-6851
itory	-6852
itual	-6853
ivacy	-6854
ixing	-6855
ltron	-6856
luded	-6857
obook	-6858
olicy	-6859
olved	-6860
onent	-6861
onsin	-6862
opian	-6863
oreal	-6864
ourts	-6865
owers	-6866
plete	-6867
ploys	-6868
pread	-6869
print	-6870
quake	-6871
raCap	-6872
racle	-6873
ranay	-6874
reach	-6875
rella	-6876
ritic	-6877
roxim	-6878
rubij	-6879
stage	-6880
ticia	-6881
tired	-6882
ucker	-6883
uding	-6884
ulate	-6885
union	-6886
ureqa	-6887
urgas	-6888
utine	-6889
verse	-6890
vised	-6891
wards	-6892
while	-6893
works	-6894
ysics	-6895
ìnéng	-6896
ùyuàn	-6897
▁1971	-6898
▁1974	-6899
,..	-6900
-2,	-6901
5-0	-6902
PRI	-6903
ijī	-6904
▁7:	-6905
▁Éc	-6906
hatt	-6907
ohol	-6908
ulco	-6909
werk	-6910
▁21,	-6911
▁SOC	-6912
▁Suz	-6913
▁umb	-6914
,...,	-6915
-2014	-6916
Carol	-6917
PRIZE	-6918
clear	-6919
ebner	-6920
ijīng	-6921
rowsy	-6922
stood	-6923
▁1977	-6924
▁1981	-6925
▁1988	-6926
▁1991	-6927
▁1994	-6928
▁2.0,	-6929
▁2006	-6930
▁8200	-6931
▁Adam	-6932
▁Agra	-6933
▁Alec	-6934
▁Also	-6935
▁Alvi	-6936
▁Aman	-6937
▁Apax	-6938
▁Arts	-6939
▁Auto	-6940
▁Back	-6941
▁Bank	-6942
▁Bare	-6943
▁Begg	-6944
▁Cast	-6945
▁Chen	-6946
▁Coca	-6947
▁Coll	-6948
▁Cons	-6949
▁Curr	-6950
▁DAIR	-6951
▁Dave	-6952
▁Dink	-6953
▁Ecos	-6954
▁Edge	-6955
▁Fact	-6956
▁Feed	-6957
▁Fern	-6958
▁Flor	-6959
▁Fond	-6960
▁Fort	-6961
▁Four	-6962
▁Gart	-6963
▁Gaza	-6964
▁Gill	-6965
▁Girl	-6966
▁Grad	-6967
▁Hale	-6968
▁Hall	-6969
▁Hard	-6970
▁Head	-6971
▁Hend	-6972
▁Hing	-6973
▁IMDb	-6974
▁Imag	-6975
▁Into	-6976
▁Iran	-6977
▁Jenn	-6978
▁Jeop	-6979
▁Joel	-6980
▁Joey	-6981
▁Jude	-6982
▁Just	-6983
▁Kenn	-6984
▁Kyle	-6985
▁LEAD	-6986
▁Laus	-6987
▁Like	-6988
▁Live	-6989
▁Long	-6990
▁Lora	-6991
▁Mach	-6992
▁Mata	-6993
▁Memb	-6994
▁Mike	-6995
▁Mile	-6996
▁Mill	-6997
▁Mira	-6998
▁Mist	-6999
2.0	-7000
ōng	-7001
erpt	-7002
irds	-7003
ooks	-7004
-1993	-7005
-1998	-7006
-2023	-7007
eddit	-7008
gedly	-7009
iliar	-7010
inova	-7011
ovitz	-7012
tiago	-7013
▁Audi	-7014
▁Aviv	-7015
▁Elon	-7016
▁Hans	-7017
▁Moon	-7018
▁Need	-7019
▁Nick	-7020
▁Olds	-7021
▁Oren	-7022
▁Pink	-7023
▁Plot	-7024
▁Poli	-7025
▁Prey	-7026
▁Prim	-7027
▁Prov	-7028
▁Race	-7029
▁Repl	-7030
▁Resc	-7031
▁Runs	-7032
▁SSEC	-7033
▁SUPS	-7034
▁Save	-7035
▁Schm	-7036
▁Sims	-7037
▁Siri	-7038
▁Sitt	-7039
▁Sust	-7040
▁Tall	-7041
▁Term	-7042
▁Then	-7043
▁Trad	-7044
▁Trap	-7045
▁Twin	-7046
▁Unst	-7047
▁Venu	-7048
▁Welf	-7049
▁What	-7050
▁Wire	-7051
▁Wisc	-7052
▁Wish	-7053
▁Wong	-7054
▁Xing	-7055
▁Yoon	-7056
▁acts	-7057
▁alma	-7058
▁anti	-7059
▁anyw	-7060
▁apps	-7061
▁area	-7062
▁arms	-7063
▁awar	-7064
▁band	-7065
▁bank	-7066
▁base	-7067
▁bear	-7068
▁bits	-7069
▁blog	-7070
▁blue	-7071
▁cass	-7072
▁cele	-7073
▁chap	-7074
▁chip	-7075
▁city	-7076
▁crit	-7077
▁crop	-7078
▁deal	-7079
▁dial	-7080
▁died	-7081
▁disp	-7082
▁done	-7083
▁dual	-7084
▁dyst	-7085
▁edge	-7086
▁fire	-7087
▁gave	-7088
▁gest	-7089
▁give	-7090
▁hire	-7091
▁iden	-7092
▁imag	-7093
▁inad	-7094
▁isol	-7095
▁ital	-7096
▁jour	-7097
▁keep	-7098
▁land	-7099
67.	-7100
-30.	-7101
▁17.	-7102
▁550	-7103
-2004	-7104
-2006	-7105
-2008	-7106
break	-7107
ecomm	-7108
grade	-7109
▁(196	-7110
▁Andy	-7111
▁Crus	-7112
▁Karl	-7113
▁Kyiv	-7114
▁Zeal	-7115
▁earl	-7116
▁lets	-7117
▁logs	-7118
▁male	-7119
▁mole	-7120
▁node	-7121
▁pack	-7122
▁perc	-7123
▁poet	-7124
▁poor	-7125
▁pure	-7126
▁rave	-7127
▁rely	-7128
▁repr	-7129
▁rock	-7130
▁scal	-7131
▁seek	-7132
▁sent	-7133
▁shot	-7134
▁side	-7135
▁span	-7136
▁spot	-7137
▁thus	-7138
▁told	-7139
▁tone	-7140
▁true	-7141
▁turn	-7142
▁unav	-7143
▁unit	-7144
▁vict	-7145
▁vill	-7146
▁viol	-7147
▁week	-7148
▁wond	-7149
▁your	-7150
Americ	-7151
MMORPG	-7152
achman	-7153
active	-7154
anging	-7155
ashion	-7156
asscha	-7157
avings	-7158
awomir	-7159
caster	-7160
ctives	-7161
ductor	-7162
ectrum	-7163
edding	-7164
ellers	-7165
enders	-7166
ensive	-7167
ertain	-7168
erting	-7169
escope	-7170
extual	-7171
fining	-7172
icious	-7173
icists	-7174
idtown	-7175
illing	-7176
ingent	-7177
istant	-7178
itious	-7179
itting	-7180
izable	-7181
izzera	-7182
kround	-7183
lishes	-7184
lusion	-7185
mented	-7186
millan	-7187
ompson	-7188
ountry	-7189
randio	-7190
ricity	-7191
rinsic	-7192
rospec	-7193
ructed	-7194
struct	-7195
ticing	-7196
tifies	-7197
titled	-7198
titude	-7199
CID	-7200
FTP	-7201
IDM	-7202
habd	-7203
ossi	-7204
zona	-7205
▁2.5	-7206
ginia	-7207
orgia	-7208
thole	-7209
▁3:10	-7210
▁Anna	-7211
▁Homo	-7212
▁Perf	-7213
▁Somp	-7214
▁didn	-7215
ossack	-7216
rusion	-7217
tzioni	-7218
uitive	-7219
urally	-7220
urated	-7221
urisko	-7222
urning	-7223
ursive	-7224
▁(2006	-7225
▁(2019	-7226
▁1,000	-7227
▁1986.	-7228
▁1992.	-7229
▁1993.	-7230
▁1994.	-7231
▁1996,	-7232
▁1999,	-7233
▁2002.	-7234
▁2003,	-7235
▁2005,	-7236
▁2007,	-7237
▁2008,	-7238
▁2012,	-7239
▁2014.	-7240
▁8200.	-7241
▁Adams	-7242
▁Agric	-7243
▁Alber	-7244
▁Aleks	-7245
▁Along	-7246
▁Aloys	-7247
▁Among	-7248
▁Anahe	-7249
▁Arena	-7250
▁Bever	-7251
▁Biker	-7252
▁Birds	-7253
▁Books	-7254
▁Brook	-7255
▁Canoe	-7256
▁Chain	-7257
▁Chall	-7258
▁Charl	-7259
▁Child	-7260
▁Clive	-7261
▁Comes	-7262
▁Drive	-7263
▁Dying	-7264
▁Egypt	-7265
▁Einar	-7266
▁Elena	-7267
▁Empir	-7268
▁Estab	-7269
▁Evalu	-7270
▁Event	-7271
▁Every	-7272
▁Field	-7273
▁Final	-7274
▁Fired	-7275
▁Fédér	-7276
▁Hamas	-7277
▁Hawai	-7278
▁Heart	-7279
▁Ideas	-7280
▁Imran	-7281
▁Insid	-7282
▁Julia	-7283
▁Kling	-7284
▁Kraft	-7285
▁Labor	-7286
▁Large	-7287
▁Light	-7288
▁Lingu	-7289
▁Liter	-7290
▁Louis	-7291
▁Major	-7292
▁Mariv	-7293
▁Mater	-7294
▁Matri	-7295
▁Metal	-7296
▁Metro	-7297
▁Monst	-7298
▁PRIOR	-7299
NET	-7300
1145	-7301
half	-7302
▁NBA	-7303
going	-7304
▁4:45	-7305
▁Munt	-7306
▁NASA	-7307
▁drug	-7308
▁half	-7309
▁jobs	-7310
Though	-7311
ealing	-7312
liance	-7313
tified	-7314
ytechn	-7315
▁1977)	-7316
▁1977,	-7317
▁1998.	-7318
▁Advis	-7319
▁Gerry	-7320
▁Kerry	-7321
▁Partn	-7322
▁Reese	-7323
▁Roman	-7324
▁Royal	-7325
▁SUPSI	-7326
▁Scene	-7327
▁Sheff	-7328
▁Sound	-7329
▁Stand	-7330
▁Store	-7331
▁Story	-7332
▁Sutta	-7333
▁Thats	-7334
▁Theme	-7335
▁Three	-7336
▁Trust	-7337
▁Truth	-7338
▁Visay	-7339
▁Voice	-7340
▁Works	-7341
▁Yossi	-7342
▁Zayed	-7343
▁accel	-7344
▁adjun	-7345
▁adult	-7346
▁agend	-7347
▁alert	-7348
▁alone	-7349
▁alter	-7350
▁andor	-7351
▁anime	-7352
▁antag	-7353
▁apply	-7354
▁appra	-7355
▁arbit	-7356
▁avail	-7357
▁bienn	-7358
▁bound	-7359
▁brand	-7360
▁calls	-7361
▁catal	-7362
▁chain	-7363
▁chron	-7364
▁clear	-7365
▁cours	-7366
▁crash	-7367
▁cyber	-7368
▁dated	-7369
▁decon	-7370
▁degra	-7371
▁drawn	-7372
▁effic	-7373
▁email	-7374
▁exams	-7375
▁expan	-7376
▁explo	-7377
▁extin	-7378
▁extra	-7379
▁faces	-7380
▁fails	-7381
▁feels	-7382
▁femin	-7383
▁files	-7384
▁flash	-7385
▁flour	-7386
▁forec	-7387
▁forum	-7388
▁grace	-7389
▁homes	-7390
▁hosts	-7391
▁icons	-7392
▁ineff	-7393
▁inner	-7394
▁items	-7395
▁judge	-7396
▁leads	-7397
▁legal	-7398
▁legis	-7399
-674	-7400
▁NPR	-7401
March	-7402
▁Arif	-7403
▁Full	-7404
▁Idea	-7405
▁Josh	-7406
▁Musk	-7407
▁Team	-7408
▁piec	-7409
MBZUAI	-7410
bersec	-7411
nishka	-7412
tuning	-7413
▁2031,	-7414
▁Carol	-7415
▁Luigi	-7416
▁Miami	-7417
▁Pearl	-7418
▁Radio	-7419
▁Refle	-7420
▁Watch	-7421
▁della	-7422
▁falls	-7423
▁match	-7424
▁metac	-7425
▁money	-7426
▁nanot	-7427
▁norms	-7428
▁noted	-7429
▁overt	-7430
▁photo	-7431
▁pione	-7432
▁plaus	-7433
▁plays	-7434
▁posed	-7435
▁press	-7436
▁quiet	-7437
▁reass	-7438
▁repos	-7439
▁rogue	-7440
▁rough	-7441
▁scene	-7442
▁scope	-7443
▁seems	-7444
▁sells	-7445
▁semin	-7446
▁serve	-7447
▁shoot	-7448
▁sixth	-7449
▁socio	-7450
▁solos	-7451
▁somew	-7452
▁split	-7453
▁spoke	-7454
▁store	-7455
▁style	-7456
▁sugar	-7457
▁supre	-7458
▁sweet	-7459
▁teach	-7460
▁touch	-7461
▁trade	-7462
▁treat	-7463
▁trend	-7464
▁troub	-7465
▁truth	-7466
▁tutor	-7467
▁types	-7468
▁unfin	-7469
▁usage	-7470
▁valid	-7471
▁votes	-7472
▁white	-7473
▁wides	-7474
▁wirel	-7475
▁worse	-7476
▁youth	-7477
▁École	-7478
Machine	-7479
Redruth	-7480
Thought	-7481
andemic	-7482
ditions	-7483
ecoming	-7484
ections	-7485
enhagen	-7486
estions	-7487
fiction	-7488
gentina	-7489
herence	-7490
ictions	-7491
ionship	-7492
isingly	-7493
istered	-7494
jective	-7495
jectory	-7496
lighten	-7497
lishers	-7498
ocratic	-7499
529	-7500
GBT	-7501
IoT	-7502
TVE	-7503
1553	-7504
Cola	-7505
uggs	-7506
ánji	-7507
▁8.5	-7508
▁Riy	-7509
party	-7510
▁APIs	-7511
▁RTVE	-7512
▁Road	-7513
▁Ryan	-7514
▁TIME	-7515
▁knew	-7516
Google	-7517
hammad	-7518
orrect	-7519
▁Bloom	-7520
▁Hobba	-7521
▁Muggs	-7522
▁Naive	-7523
▁Santa	-7524
▁Susie	-7525
▁divor	-7526
▁fears	-7527
▁floor	-7528
▁frequ	-7529
Donovan	-7530
Shields	-7531
ketball	-7532
ologies	-7533
orowitz	-7534
ospital	-7535
ovisual	-7536
pensive	-7537
private	-7538
program	-7539
purpose	-7540
rations	-7541
seeking	-7542
solving	-7543
thought	-7544
ticized	-7545
tifying	-7546
tillion	-7547
tronics	-7548
untress	-7549
urgence	-7550
urrence	-7551
versies	-7552
winning	-7553
worldly	-7554
▁(1997)	-7555
▁(2013)	-7556
▁(2015)	-7557
▁(2017)	-7558
▁(2021)	-7559
▁(2022)	-7560
▁1993),	-7561
▁1994),	-7562
▁2002).	-7563
▁Acquis	-7564
▁Adjust	-7565
▁Agents	-7566
▁Always	-7567
▁Anadol	-7568
▁Angelo	-7569
▁Annual	-7570
▁Berlin	-7571
▁Budget	-7572
▁Caenor	-7573
▁Change	-7574
▁Charts	-7575
▁Comics	-7576
▁Condon	-7577
▁Connor	-7578
▁Dalton	-7579
▁Dimens	-7580
▁Dineva	-7581
▁Dustin	-7582
▁Energy	-7583
▁Entity	-7584
▁Eureqa	-7585
▁Excell	-7586
▁Ginger	-7587
▁Harris	-7588
▁Hawtin	-7589
▁Heaven	-7590
▁Heideg	-7591
▁Helena	-7592
▁Hounds	-7593
▁Indust	-7594
▁Jersey	-7595
▁Justin	-7596
▁Kassan	-7597
▁Krishi	-7598
▁Listen	-7599
ERT	-7600
PaaS	-7601
feit	-7602
réal	-7603
▁BGE	-7604
▁Ltd	-7605
▁MGX	-7606
Piper	-7607
▁3:08	-7608
▁BERT	-7609
Hebrew	-7610
Strike	-7611
ostela	-7612
▁Joseph	-7613
▁Living	-7614
▁MBZUAI	-7615
▁Market	-7616
▁Markup	-7617
▁McCall	-7618
▁Memory	-7619
▁Middle	-7620
▁Mother	-7621
▁Murati	-7622
▁Native	-7623
▁Norvig	-7624
▁Norway	-7625
▁Online	-7626
▁Oxford	-7627
▁Palmer	-7628
▁Peking	-7629
▁Policy	-7630
▁Potter	-7631
▁Predic	-7632
▁Rapids	-7633
▁Rashid	-7634
▁Remote	-7635
▁Richie	-7636
▁Ridler	-7637
▁Rounds	-7638
▁Second	-7639
▁Senior	-7640
▁Skynet	-7641
▁Source	-7642
▁Speech	-7643
▁Spider	-7644
▁Statis	-7645
▁Stress	-7646
▁Strong	-7647
▁Stuart	-7648
▁Summer	-7649
▁Summit	-7650
▁Suzuki	-7651
▁Things	-7652
▁Turkey	-7653
▁Twenty	-7654
▁Visual	-7655
▁Walker	-7656
▁Weekly	-7657
▁Willow	-7658
▁Worlds	-7659
▁XPRIZE	-7660
▁Yorker	-7661
▁accept	-7662
▁accord	-7663
▁acknow	-7664
▁acting	-7665
▁affili	-7666
▁aiming	-7667
▁allies	-7668
▁anyone	-7669
▁argued	-7670
▁arises	-7671
▁armors	-7672
▁aspect	-7673
▁assass	-7674
▁assemb	-7675
▁assign	-7676
▁assume	-7677
▁belong	-7678
▁branch	-7679
▁breaks	-7680
▁camera	-7681
▁caused	-7682
▁cement	-7683
▁citing	-7684
▁closed	-7685
▁cloudy	-7686
▁combat	-7687
▁comedy	-7688
▁coming	-7689
▁consul	-7690
▁contem	-7691
▁conven	-7692
▁covers	-7693
▁crisis	-7694
▁decree	-7695
▁demand	-7696
▁device	-7697
▁disapp	-7698
▁dubbed	-7699
ygon	-7700
Surge	-7701
avier	-7702
tnmid	-7703
▁Bush	-7704
▁Cruz	-7705
▁DESA	-7706
▁Dowd	-7707
▁Habs	-7708
▁IEEE	-7709
▁Iraq	-7710
▁Jeju	-7711
▁OLMo	-7712
▁PRMs	-7713
▁Pete	-7714
▁Srik	-7715
Keeper	-7716
minded	-7717
phithe	-7718
thesis	-7719
▁Casal	-7720
▁Jorie	-7721
▁Mimno	-7722
▁Mundi	-7723
▁Pinoc	-7724
▁Rouge	-7725
▁Taras	-7726
▁Types	-7727
▁cauti	-7728
▁dawns	-7729
▁false	-7730
▁fifty	-7731
▁inacc	-7732
▁lonel	-7733
▁melod	-7734
▁ought	-7735
▁toxic	-7736
▁weeks	-7737
emplify	-7738
igadier	-7739
▁Africa	-7740
▁Basque	-7741
▁Dekova	-7742
▁Groban	-7743
▁Heaney	-7744
▁Javier	-7745
▁Lisbon	-7746
▁Paglen	-7747
▁Slonim	-7748
▁Sobala	-7749
▁Soviet	-7750
▁Therma	-7751
▁Timnit	-7752
▁Winter	-7753
▁Yoshua	-7754
▁casual	-7755
▁eScape	-7756
▁elabor	-7757
▁embedd	-7758
▁empath	-7759
▁encomp	-7760
▁enough	-7761
▁essays	-7762
▁ethnic	-7763
▁exclus	-7764
▁explan	-7765
▁export	-7766
▁extens	-7767
▁extrac	-7768
▁factor	-7769
▁failed	-7770
▁family	-7771
▁filter	-7772
▁flight	-7773
▁forged	-7774
▁fourth	-7775
▁funded	-7776
▁gained	-7777
▁genres	-7778
▁giving	-7779
▁groups	-7780
▁headed	-7781
▁helped	-7782
▁heuris	-7783
▁hidden	-7784
▁honest	-7785
▁humour	-7786
▁incarn	-7787
▁inputs	-7788
▁judges	-7789
▁jurisd	-7790
▁kitten	-7791
▁latest	-7792
▁learns	-7793
▁legacy	-7794
▁legend	-7795
▁licens	-7796
▁likely	-7797
▁limits	-7798
▁loving	-7799
éngōng	-7800
▁Meena	-7801
eatedly	-7802
hearted	-7803
▁Burgas	-7804
▁Courts	-7805
▁Hrubij	-7806
▁Mactan	-7807
▁Nagoya	-7808
▁Oracle	-7809
▁Pranay	-7810
▁Rafael	-7811
▁Reddit	-7812
▁Ultron	-7813
▁Window	-7814
▁drowsy	-7815
▁fantas	-7816
▁mainly	-7817
▁marked	-7818
▁marker	-7819
▁matter	-7820
▁mimics	-7821
▁mixing	-7822
▁moving	-7823
▁nights	-7824
▁noting	-7825
▁obstac	-7826
▁omnich	-7827
▁openly	-7828
▁option	-7829
▁orders	-7830
▁peaked	-7831
▁philan	-7832
▁phrase	-7833
▁pieces	-7834
▁portra	-7835
▁pragma	-7836
▁preser	-7837
▁primes	-7838
▁proced	-7839
▁promin	-7840
▁propos	-7841
▁pseudo	-7842
▁purely	-7843
▁random	-7844
▁remote	-7845
▁resort	-7846
▁riddle	-7847
▁safegu	-7848
▁safely	-7849
▁scenes	-7850
▁screen	-7851
▁season	-7852
▁secure	-7853
▁serves	-7854
▁sister	-7855
▁solved	-7856
▁solves	-7857
▁status	-7858
▁stress	-7859
▁suited	-7860
▁summer	-7861
▁summit	-7862
▁survey	-7863
▁tenure	-7864
▁thinks	-7865
▁timely	-7866
▁titles	-7867
▁tokens	-7868
▁trophy	-7869
▁unders	-7870
▁unless	-7871
▁unlike	-7872
▁varies	-7873
▁venues	-7874
▁winner	-7875
▁winter	-7876
▁worlds	-7877
:10.1145	-7878
Alicebot	-7879
American	-7880
Computer	-7881
Explorer	-7882
Lavender	-7883
amakanni	-7884
ardrails	-7885
asschaat	-7886
breaking	-7887
ceedings	-7888
cryption	-7889
director	-7890
doctoral	-7891
ectivity	-7892
egoldbar	-7893
financed	-7894
habditis	-7895
inations	-7896
ineering	-7897
inforces	-7898
inspired	-7899
▁Riyadh	-7900
izenbaum	-7901
language	-7902
missions	-7903
ographic	-7904
rategies	-7905
ressable	-7906
ribution	-7907
sequence	-7908
standard	-7909
tainment	-7910
thinking	-7911
tication	-7912
training	-7913
ventions	-7914
▁(2001),	-7915
▁(2004),	-7916
▁(2005),	-7917
▁(2007),	-7918
▁(2009).	-7919
▁(2017).	-7920
▁0-262-6	-7921
▁100,000	-7922
▁260.00.	-7923
▁Acceler	-7924
▁Adapted	-7925
▁Affairs	-7926
▁Agrawal	-7927
▁Airways	-7928
▁Ambient	-7929
▁Anaheim	-7930
▁Appleby	-7931
▁Applied	-7932
▁Archive	-7933
▁Arizona	-7934
▁Arrival	-7935
▁Banking	-7936
▁Banquet	-7937
▁Beggars	-7938
▁Belgium	-7939
▁Běijīng	-7940
▁Captain	-7941
▁Charter	-7942
▁Cleanup	-7943
▁Climate	-7944
▁Command	-7945
▁Cornell	-7946
▁Counter	-7947
▁Country	-7948
▁Debates	-7949
▁Despite	-7950
▁Detroit	-7951
▁Dinkins	-7952
▁Dowdall	-7953
▁Dynamic	-7954
▁Endgame	-7955
▁Erandio	-7956
▁Estates	-7957
▁Estonia	-7958
▁Etzioni	-7959
▁Eurisko	-7960
▁Fernand	-7961
▁Fortune	-7962
▁Gartner	-7963
▁Genstar	-7964
▁Georgia	-7965
▁Habsora	-7966
▁Harbour	-7967
▁HoldsAt	-7968
▁Hungary	-7969
▁Insider	-7970
▁Instead	-7971
▁Introdu	-7972
▁Ireland	-7973
▁Israeli	-7974
▁Italian	-7975
▁Jericho	-7976
▁Jiuding	-7977
▁Justice	-7978
▁Kenneth	-7979
▁Limited	-7980
▁Loebner	-7981
▁Martino	-7982
▁Midtown	-7983
▁Mistral	-7984
▁Mohamed	-7985
▁Monitor	-7986
▁Morocco	-7987
▁Patrick	-7988
▁Philips	-7989
▁Picture	-7990
▁Pilmico	-7991
▁Pioneer	-7992
▁Pollock	-7993
▁Polygon	-7994
▁Privacy	-7995
▁Profile	-7996
▁Related	-7997
▁Reports	-7998
▁Reunion	-7999
▁Romania	-8000
▁Rositsa	-8001
▁Schmidt	-8002
▁Scoring	-8003
▁Shields	-8004
▁Similar	-8005
▁Somparn	-8006
▁Special	-8007
▁Spindel	-8008
▁Squared	-8009
▁Stories	-8010
▁Student	-8011
▁Studios	-8012
▁Subject	-8013
▁Success	-8014
▁Sustain	-8015
▁Velinov	-8016
▁Walking	-8017
▁Welfare	-8018
▁Writing	-8019
▁Zealand	-8020
▁accompl	-8021
▁adapted	-8022
▁adjunct	-8023
▁airline	-8024
▁ancient	-8025
▁answers	-8026
▁antagon	-8027
▁anytime	-8028
▁arguing	-8029
▁attacks	-8030
▁attract	-8031
▁believe	-8032
▁biggest	-8033
▁briefly	-8034
▁cameras	-8035
▁capsule	-8036
▁carried	-8037
▁causing	-8038
▁century	-8039
▁channel	-8040
▁claimed	-8041
▁classes	-8042
▁cluster	-8043
▁compreh	-8044
▁conform	-8045
▁consult	-8046
▁contest	-8047
▁covered	-8048
▁critics	-8049
▁damages	-8050
▁dancing	-8051
▁dangers	-8052
▁debated	-8053
▁decades	-8054
▁degrees	-8055
▁desired	-8056
▁details	-8057
▁discrim	-8058
▁disease	-8059
▁dissert	-8060
▁emerged	-8061
▁employs	-8062
▁endless	-8063
▁enforce	-8064
▁ensures	-8065
▁entered	-8066
▁evolved	-8067
▁excerpt	-8068
▁existed	-8069
▁factory	-8070
▁farming	-8071
▁federal	-8072
▁finally	-8073
▁fucking	-8074
▁grading	-8075
▁greater	-8076
▁grounds	-8077
▁guesses	-8078
▁guiding	-8079
▁hallway	-8080
▁halting	-8081
▁harmful	-8082
▁heading	-8083
▁holding	-8084
▁hundred	-8085
▁illustr	-8086
▁imposed	-8087
▁indexed	-8088
▁intense	-8089
▁interim	-8090
▁interop	-8091
▁introdu	-8092
▁invests	-8093
▁jointly	-8094
▁journey	-8095
▁located	-8096
▁logical	-8097
▁looking	-8098
▁massive	-8099
▁mathcal	-8100
▁monthly	-8101
▁musical	-8102
▁nowhere	-8103
▁optimal	-8104
▁outlets	-8105
▁outside	-8106
▁overlap	-8107
▁parents	-8108
▁partial	-8109
▁passion	-8110
▁permiss	-8111
▁persona	-8112
▁playing	-8113
▁podcast	-8114
▁possess	-8115
▁printed	-8116
▁profess	-8117
▁pursuit	-8118
▁raising	-8119
▁rapidly	-8120
▁reached	-8121
▁refined	-8122
▁reified	-8123
▁reissue	-8124
▁removal	-8125
▁removed	-8126
▁respond	-8127
▁retired	-8128
▁routine	-8129
▁royalty	-8130
▁running	-8131
▁satisfy	-8132
▁scholar	-8133
▁scoring	-8134
▁sectors	-8135
▁secured	-8136
▁seeking	-8137
▁session	-8138
▁setting	-8139
▁shanten	-8140
▁sitting	-8141
▁solving	-8142
▁sparked	-8143
▁starred	-8144
▁stepped	-8145
▁storage	-8146
▁suffici	-8147
▁talking	-8148
▁telecom	-8149
▁theatre	-8150
▁thereby	-8151
▁trading	-8152
▁uncover	-8153
▁unicorn	-8154
▁unknown	-8155
▁usually	-8156
▁utility	-8157
▁vendors	-8158
▁visible	-8159
▁volumes	-8160
Carolinas	-8161
Performed	-8162
Portreath	-8163
President	-8164
September	-8165
Supertoys	-8166
activated	-8167
arthquake	-8168
astrophic	-8169
echnology	-8170
ellectual	-8171
enhancing	-8172
gorithmic	-8173
ibilities	-8174
liography	-8175
prisingly	-8176
published	-8177
raCapital	-8178
sometimes	-8179
specified	-8180
stracting	-8181
vertently	-8182
ánjiùyuàn	-8183
▁0-262-08	-8184
▁978-1529	-8185
▁Ablation	-8186
▁Alicebot	-8187
▁AllenNLP	-8188
▁Aloysius	-8189
▁Although	-8190
▁Americas	-8191
▁BAAIWorm	-8192
▁Bachelor	-8193
▁Bareinbo	-8194
▁Barriers	-8195
▁Behavior	-8196
▁Brooklyn	-8197
▁CAPTCHAs	-8198
▁Canoeing	-8199
▁Carolina	-8200
▁Chairman	-8201
▁Chapters	-8202
▁Cornwall	-8203
▁Cortical	-8204
▁Cotabato	-8205
▁Creative	-8206
▁Dataflow	-8207
▁Editions	-8208
▁Electric	-8209
▁Estonian	-8210
▁Founding	-8211
▁Fédérale	-8212
▁Gunsmith	-8213
▁Hardware	-8214
▁Holdings	-8215
▁Horowitz	-8216
▁ImageNet	-8217
▁Infinity	-8218
▁Jennifer	-8219
▁Jeopardy	-8220
▁Justicia	-8221
▁Lausanne	-8222
▁Lectures	-8223
▁Lifetime	-8224
▁Marinova	-8225
▁Millikin	-8226
▁Modeling	-8227
▁Mohammed	-8228
▁Montréal	-8229
▁Muhammad	-8230
▁Outreach	-8231
▁Palantir	-8232
▁Particip	-8233
▁Partners	-8234
▁Paterson	-8235
▁Programs	-8236
▁Projects	-8237
▁Rational	-8238
▁Replicas	-8239
▁Robinson	-8240
▁Santiago	-8241
▁Scholars	-8242
▁Slovakia	-8243
▁Slovenia	-8244
▁Southern	-8245
▁Srikanth	-8246
▁Stargate	-8247
▁Svizzera	-8248
▁Thompson	-8249
▁Virginia	-8250
▁Waterloo	-8251
▁academia	-8252
▁accident	-8253
▁accounts	-8254
▁accurate	-8255
▁activate	-8256
▁adaptive	-8257
▁aligning	-8258
▁allowing	-8259
▁answered	-8260
▁anywhere	-8261
▁approved	-8262
▁asserted	-8263
▁autonomy	-8264
▁balanced	-8265
▁barriers	-8266
▁believes	-8267
▁blending	-8268
▁bringing	-8269
▁cassette	-8270
▁cautious	-8271
▁chairman	-8272
▁chapters	-8273
▁checking	-8274
▁civilian	-8275
▁collapse	-8276
▁compares	-8277
▁competit	-8278
▁conducts	-8279
▁consumer	-8280
▁contains	-8281
▁continue	-8282
▁controls	-8283
▁converts	-8284
▁criteria	-8285
▁critical	-8286
▁cybersec	-8287
▁defining	-8288
▁depicted	-8289
▁dilemmas	-8290
▁dynamics	-8291
▁elements	-8292
▁employee	-8293
▁entirely	-8294
▁entities	-8295
▁entitled	-8296
▁euphoria	-8297
▁examined	-8298
▁excluded	-8299
▁exercise	-8300
▁exhibits	-8301
▁expected	-8302
▁explores	-8303
▁extended	-8304
▁fairness	-8305
▁feelings	-8306
▁feminine	-8307
▁forensic	-8308
▁formally	-8309
▁founders	-8310
▁governor	-8311
▁grounded	-8312
▁handling	-8313
▁hologram	-8314
▁horrible	-8315
▁humanoid	-8316
▁humorous	-8317
▁identity	-8318
▁imagines	-8319
▁indexing	-8320
▁inherent	-8321
▁instance	-8322
▁intellig	-8323
▁interior	-8324
▁italiana	-8325
▁journeys	-8326
▁labeling	-8327
▁labelled	-8328
▁launches	-8329
▁matching	-8330
▁meanings	-8331
▁measured	-8332
▁messages	-8333
▁modified	-8334
▁movement	-8335
▁neoclass	-8336
▁numerous	-8337
▁observed	-8338
▁official	-8339
▁outlines	-8340
▁overcome	-8341
▁painting	-8342
▁perceive	-8343
▁percepts	-8344
▁politics	-8345
▁prospect	-8346
▁publicly	-8347
▁rankings	-8348
▁receives	-8349
▁regarded	-8350
▁reliable	-8351
▁renowned	-8352
▁resemble	-8353
▁resulted	-8354
▁returned	-8355
▁rotation	-8356
▁settings	-8357
▁situated	-8358
▁societal	-8359
▁solution	-8360
▁speaking	-8361
▁studying	-8362
▁subjects	-8363
▁superint	-8364
▁teaching	-8365
▁thriller	-8366
▁tracking	-8367
▁tutorial	-8368
▁umbrella	-8369
▁waypoint	-8370
▁weighted	-8371
▁workshop	-8372
-4020-6710	-8373
affiliated	-8374
controlled	-8375
iconductor	-8376
monitoring	-8377
ographical	-8378
orealistic	-8379
phitheater	-8380
rospective	-8381
structured	-8382
supervised	-8383
tification	-8384
ytechnique	-8385
▁978-0-674	-8386
▁Alexander	-8387
▁Argentina	-8388
▁Assistant	-8389
▁Autoclass	-8390
▁Bloomberg	-8391
▁Brigadier	-8392
▁Challenge	-8393
▁Cinematic	-8394
▁Conscious	-8395
▁Corporate	-8396
▁Dimension	-8397
▁Ecosystem	-8398
▁Evolution	-8399
▁Fictional	-8400
▁Fondation	-8401
▁Gumnishka	-8402
▁Heidegger	-8403
▁Insurance	-8404
▁Intrusion	-8405
▁Kraftwerk	-8406
▁Locations	-8407
▁Louisiana	-8408
▁Macmillan	-8409
▁Mariveles	-8410
▁Materials	-8411
▁Meanwhile	-8412
▁Milkround	-8413
▁MindRACES	-8414
▁Obsession	-8415
▁Operating	-8416
▁Pinocchio	-8417
▁Principle	-8418
▁Procedure	-8419
▁Programme	-8420
▁Recursive	-8421
▁Represent	-8422
▁Robertson	-8423
▁Sometimes	-8424
▁Stephanie	-8425
▁Therefore	-8426
▁Wisconsin	-8427
▁Worldwide	-8428
▁achieving	-8429
▁addressed	-8430
▁allegedly	-8431
▁alleviate	-8432
▁ambitious	-8433
▁analogous	-8434
▁arbitrary	-8435
▁associate	-8436
▁attention	-8437
▁authority	-8438
▁awareness	-8439
▁balancing	-8440
▁behaviors	-8441
▁buildings	-8442
▁checklist	-8443
▁citations	-8444
▁commented	-8445
▁continued	-8446
▁countdown	-8447
▁criticism	-8448
▁daughters	-8449
▁designing	-8450
▁detection	-8451
▁determine	-8452
▁difficult	-8453
▁direction	-8454
▁disasters	-8455
▁discarded	-8456
▁disclosed	-8457
▁documents	-8458
▁downloads	-8459
▁dystopian	-8460
▁efficient	-8461
▁eliminate	-8462
▁emergency	-8463
▁emotional	-8464
▁emphasize	-8465
▁encourage	-8466
▁encrypted	-8467
▁enlighten	-8468
▁estimated	-8469
▁evolution	-8470
▁exemplify	-8471
▁existence	-8472
▁expressed	-8473
▁expresses	-8474
▁favorably	-8475
▁federated	-8476
▁finishing	-8477
▁formalism	-8478
▁fundament	-8479
▁generated	-8480
▁geography	-8481
▁geovisual	-8482
▁graduated	-8483
▁graduates	-8484
▁graphical	-8485
▁identical	-8486
▁inclusion	-8487
▁incorrect	-8488
▁incubator	-8489
▁indicated	-8490
▁initiated	-8491
▁malicious	-8492
▁massively	-8493
▁memorable	-8494
▁mentioned	-8495
▁messenger	-8496
▁modelling	-8497
▁modifying	-8498
▁molecular	-8499
▁multitude	-8500
▁naturally	-8501
▁nonprofit	-8502
▁numerical	-8503
▁objective	-8504
▁occurring	-8505
▁offerings	-8506
▁operation	-8507
▁parameter	-8508
▁personnel	-8509
▁platforms	-8510
▁political	-8511
▁predicted	-8512
▁producing	-8513
▁programme	-8514
▁prototype	-8515
▁providers	-8516
▁purchased	-8517
▁regarding	-8518
▁relevance	-8519
▁replacing	-8520
▁reporting	-8521
▁requiring	-8522
▁resulting	-8523
▁returning	-8524
▁scheduled	-8525
▁searching	-8526
▁secretary	-8527
▁sentiment	-8528
▁separated	-8529
▁sequences	-8530
▁signature	-8531
▁situation	-8532
▁skeptical	-8533
▁sponsored	-8534
▁spotlight	-8535
▁strategic	-8536
▁strengths	-8537
▁struggles	-8538
▁subsidize	-8539
▁suggested	-8540
▁supremacy	-8541
▁suspected	-8542
▁synthesis	-8543
▁synthetic	-8544
▁targeting	-8545
▁therefore	-8546
▁tradition	-8547
▁uncertain	-8548
▁utilizing	-8549
▁workflows	-8550
development	-8551
stimulation	-8552
▁Accounting	-8553
▁Aleksandar	-8554
▁Andreessen	-8555
▁Associates	-8556
▁Blockchain	-8557
▁Commercial	-8558
▁Compostela	-8559
▁Copenhagen	-8560
▁CrowdSurge	-8561
▁Enterbrain	-8562
▁Enterprise	-8563
▁Evaluation	-8564
▁Excellence	-8565
▁Gradescope	-8566
▁Historical	-8567
▁Homecoming	-8568
▁Introduced	-8569
▁Klingemann	-8570
▁Laboratory	-8571
▁Monstercat	-8572
▁Perplexity	-8573
▁Previously	-8574
▁Publishers	-8575
▁Reflection	-8576
▁Srinivasan	-8577
▁Statistics	-8578
▁Techniques	-8579
▁Terminator	-8580
▁Università	-8581
▁accelerate	-8582
▁acknowledg	-8583
▁addressing	-8584
▁affiliated	-8585
▁assessment	-8586
▁attributes	-8587
▁background	-8588
▁basketball	-8589
▁biennially	-8590
▁biological	-8591
▁characters	-8592
▁collecting	-8593
▁collective	-8594
▁comparison	-8595
▁compliance	-8596
▁compulsive	-8597
▁constraint	-8598
▁contextual	-8599
▁contingent	-8600
▁coursework	-8601
▁criticized	-8602
▁democratic	-8603
▁differenti	-8604
▁directives	-8605
▁downloaded	-8606
▁efficiency	-8607
▁elaborates	-8608
▁engagement	-8609
▁explicitly	-8610
▁extinction	-8611
▁extracting	-8612
▁foundation	-8613
▁frequently	-8614
▁guardrails	-8615
▁identified	-8616
▁inaccurate	-8617
▁increasing	-8618
▁industries	-8619
▁innovative	-8620
▁institutes	-8621
▁interfaces	-8622
▁journalist	-8623
▁linguistic	-8624
▁loneliness	-8625
▁mainstream	-8626
▁maximising	-8627
▁mechanical	-8628
▁memorandum	-8629
▁monitoring	-8630
▁multimodal	-8631
▁nonfiction	-8632
▁perceiving	-8633
▁percussion	-8634
▁population	-8635
▁predicates	-8636
▁prejudiced	-8637
▁presenting	-8638
▁prioritize	-8639
▁processors	-8640
▁protesters	-8641
▁purchasing	-8642
▁reinforces	-8643
▁repeatedly	-8644
▁repository	-8645
▁resurgence	-8646
▁revolution	-8647
▁scheduling	-8648
▁septillion	-8649
▁simulating	-8650
▁translated	-8651
▁unfinished	-8652
▁variations	-8653
▁widespread	-8654
instrumental	-8655
specifically	-8656
▁Abstracting	-8657
▁Advertising	-8658
▁Agriculture	-8659
▁Algorithmic	-8660
▁Composition	-8661
▁Convolution	-8662
▁Definitions	-8663
▁Distinguish	-8664
▁Freegoldbar	-8665
▁Furthermore	-8666
▁Limitations	-8667
▁Partnership	-8668
▁Predictions	-8669
▁Proceedings	-8670
▁Programming	-8671
▁Publication	-8672
▁Traditional	-8673
▁Transformer	-8674
▁Translation	-8675
▁Velamakanni	-8676
▁WatchKeeper	-8677
▁Wireheading	-8678
▁accelerated	-8679
▁accordingly	-8680
▁appearances	-8681
▁appointment	-8682
▁broadcaster	-8683
▁categorized	-8684
▁challenging	-8685
▁collaborate	-8686
▁commonsense	-8687
▁communities	-8688
▁comparisons	-8689
▁competitive	-8690
▁constraints	-8691
▁continually	-8692
▁contributed	-8693
▁controversy	-8694
▁correlation	-8695
▁counterfeit	-8696
▁documenting	-8697
▁educational	-8698
▁electricity	-8699
▁electronics	-8700
▁emergencies	-8701
▁encompasses	-8702
▁examination	-8703
▁existential	-8704
▁experienced	-8705
▁experiments	-8706
▁handwritten	-8707
▁ideological	-8708
▁incarnation	-8709
▁inspiration	-8710
▁integration	-8711
▁intentional	-8712
▁journalists	-8713
▁legislation	-8714
▁linguistics	-8715
▁maintaining	-8716
▁multiplayer	-8717
▁nonviolence	-8718
▁obligations	-8719
▁omnichannel	-8720
▁participate	-8721
▁photographs	-8722
▁preferences	-8723
▁probability	-8724
▁rationality	-8725
▁singularity	-8726
▁specialized	-8727
▁specializes	-8728
▁stimulating	-8729
▁submissions	-8730
▁subsymbolic	-8731
▁technically	-8732
▁threatening	-8733
▁translating	-8734
▁unavailable	-8735
▁Acquisitions	-8736
▁ConCarolinas	-8737
▁Cybertronics	-8738
▁InfraCapital	-8739
▁Introduction	-8740
▁Optimization	-8741
▁Subcommittee	-8742
▁Unstressable	-8743
▁accomplished	-8744
▁acquisitions	-8745
▁additionally	-8746
▁advancements	-8747
▁agricultural	-8748
▁availability	-8749
▁biologically	-8750
▁catastrophic	-8751
▁championship	-8752
▁construction	-8753
▁contribution	-8754
▁customizable	-8755
▁deliberation	-8756
▁developments	-8757
▁differential	-8758
▁experiencing	-8759
▁exploitation	-8760
▁implementing	-8761
▁incorporated	-8762
▁incorporates	-8763
▁individually	-8764
▁instrumental	-8765
▁intermediate	-8766
▁lighthearted	-8767
▁neoclassical	-8768
▁otherworldly	-8769
▁presentation	-8770
▁preservation	-8771
▁productivity	-8772
▁psychologist	-8773
▁representing	-8774
▁reproduction	-8775
▁satisfaction	-8776
▁semantically	-8777
▁specifically	-8778
▁standardized	-8779
▁successfully	-8780
▁sufficiently	-8781
▁transforming	-8782
▁verification	-8783
disambiguation	-8784
▁Artificiality	-8785
▁Communication	-8786
▁Controversies	-8787
▁Environmental	-8788
▁Polytechnique	-8789
▁artificiality	-8790
▁compositional	-8791
▁connectionist	-8792
▁controversial	-8793
▁cybersecurity	-8794
▁enlightenment	-8795
▁inadvertently	-8796
▁incorporating	-8797
▁intentionally	-8798
▁interventions	-8799
▁investigation	-8800
▁manufacturing	-8801
▁metacognition	-8802
▁photographers	-8803
▁psychological	-8804
▁retrospective	-8805
▁unconsciously	-8806
▁Caenorhabditis	-8807
▁Communications	-8808
▁Milkroundabout	-8809
▁Sustainability	-8810
▁accountability	-8811
▁authentication	-8812
▁characteristic	-8813
▁classification	-8814
▁demonstrations	-8815
▁discrimination	-8816
▁nanotechnology	-8817
▁photorealistic	-8818
▁sustainability	-8819
▁systematically	-8820
▁transformation	-8821
▁computationally	-8822
▁internationally	-8823
)(	-8824
))	-8825
--	-8826
.3	-8827
.6	-8828
09	-8829
1"	-8830
1(	-8831
14	-8832
2-	-8833
21	-8834
23	-8835
27	-8836
2:	-8837
3-	-8838
36	-8839
38	-8840
4-	-8841
41	-8842
44	-8843
48	-8844
54	-8845
5:	-8846
61	-8847
7-	-8848
78	-8849
7;	-8850
82	-8851
83	-8852
84	-8853
85	-8854
95	-8855
AA	-8856
AB	-8857
AG	-8858
AP	-8859
AW	-8860
Al	-8861
Ar	-8862
BU	-8863
Br	-8864
By	-8865
CO	-8866
CR	-8867
Co	-8868
Cs	-8869
DE	-8870
DJ	-8871
DO	-8872
DS	-8873
Du	-8874
Dx	-8875
EU	-8876
En	-8877
Et	-8878
GP	-8879
GS	-8880
HC	-8881
HE	-8882
HF	-8883
HI	-8884
HO	-8885
Ha	-8886
He	-8887
IF	-8888
II	-8889
IZ	-8890
If	-8891
KA	-8892
Mo	-8893
NA	-8894
NN	-8895
NT	-8896
NY	-8897
No	-8898
OF	-8899
1'	-8900
22	-8901
8)	-8902
EZ	-8903
GO	-8904
NO	-8905
OI	-8906
ON	-8907
OT	-8908
PM	-8909
PN	-8910
PO	-8911
RE	-8912
RL	-8913
SB	-8914
SE	-8915
SF	-8916
SM	-8917
ST	-8918
SV	-8919
Sp	-8920
TC	-8921
TH	-8922
TT	-8923
Te	-8924
To	-8925
Tr	-8926
UT	-8927
VA	-8928
VC	-8929
VL	-8930
WE	-8931
WS	-8932
YC	-8933
ae	-8934
aq	-8935
bb	-8936
bl	-8937
cl	-8938
cy	-8939
dn	-8940
eT	-8941
ef	-8942
eo	-8943
fK	-8944
fi	-8945
fl	-8946
gm	-8947
gu	-8948
hl	-8949
ii	-8950
jh	-8951
oi	-8952
oo	-8953
ps	-8954
rl	-8955
sa	-8956
sd	-8957
sm	-8958
sp	-8959
ua	-8960
wl	-8961
ws	-8962
yn	-8963
yo	-8964
yv	-8965
za	-8966
zi	-8967
zo	-8968
él	-8969
óv	-8970
ów	-8971
ات	-8972
دت	-8973
دو	-8974
عد	-8975
عم	-8976
عي	-8977
قت	-8978
لل	-8979
مد	-8980
▁י	-8981
川愛	-8982
).:	-8983
-00	-8984
-03	-8985
-1.	-8986
-3,	-8987
-39	-8988
197	-8989
500	-8990
AIJ	-8991
AIL	-8992
BUR	-8993
Bot	-8994
CLA	-8995
CRI	-8996
GOs	-8997
Har	-8998
Lat	-8999
!)	-9000
AQ	-9001
DG	-9002
FE	-9003
HS	-9004
PL	-9005
TW	-9006
_1	-9007
dà	-9008
mä	-9009
ÜD	-9010
ÜV	-9011
ōn	-9012
اد	-9013
قم	-9014
يق	-9015
▁ع	-9016
▁م	-9017
ARP	-9018
Acc	-9019
FDG	-9020
MIT	-9021
MPC	-9022
May	-9023
Now	-9024
OTR	-9025
One	-9026
Res	-9027
Rob	-9028
Som	-9029
Tun	-9030
Wat	-9031
acr	-9032
afr	-9033
aic	-9034
aip	-9035
aki	-9036
big	-9037
bor	-9038
bra	-9039
cel	-9040
cod	-9041
cut	-9042
dol	-9043
dro	-9044
dào	-9045
ede	-9046
edi	-9047
edy	-9048
elä	-9049
ema	-9050
erd	-9051
erv	-9052
eye	-9053
hal	-9054
haw	-9055
hov	-9056
iaz	-9057
igg	-9058
igs	-9059
ikh	-9060
irk	-9061
irm	-9062
iva	-9063
jan	-9064
kin	-9065
ksh	-9066
lek	-9067
lev	-9068
mac	-9069
maj	-9070
mov	-9071
oat	-9072
ona	-9073
oni	-9074
owl	-9075
pal	-9076
pic	-9077
rar	-9078
rig	-9079
rol	-9080
rot	-9081
ryJ	-9082
sed	-9083
sin	-9084
sub	-9085
sur	-9086
tas	-9087
tes	-9088
tio	-9089
tle	-9090
tsh	-9091
uin	-9092
vet	-9093
yak	-9094
you	-9095
zes	-9096
éry	-9097
ìyu	-9098
اعي	-9099
AMP	-9100
Cal	-9101
For	-9102
esk	-9103
het	-9104
inz	-9105
itk	-9106
nes	-9107
oes	-9108
pop	-9109
pst	-9110
raj	-9111
sey	-9112
ups	-9113
uzz	-9114
zen	-9115
▁"3	-9116
▁2)	-9117
▁3.	-9118
▁32	-9119
▁53	-9120
▁8,	-9121
▁Ak	-9122
▁BA	-9123
▁CB	-9124
▁Cp	-9125
▁EL	-9126
▁Gi	-9127
▁Iv	-9128
▁Ke	-9129
▁MA	-9130
▁MS	-9131
▁Ng	-9132
▁Pi	-9133
▁Ru	-9134
▁SF	-9135
▁TE	-9136
▁UZ	-9137
▁Xc	-9138
▁Ya	-9139
▁Ye	-9140
▁ap	-9141
▁di	-9142
▁gy	-9143
▁ru	-9144
▁ti	-9145
▁tv	-9146
▁ty	-9147
▁wù	-9148
-13,	-9149
-383	-9150
0395	-9151
2016	-9152
4213	-9153
725.	-9154
844.	-9155
898,	-9156
CGCG	-9157
Here	-9158
Host	-9159
IOAI	-9160
LRDE	-9161
MNLP	-9162
Mago	-9163
OFAI	-9164
OSTP	-9165
Open	-9166
Pion	-9167
RLHF	-9168
Real	-9169
Wing	-9170
ader	-9171
aint	-9172
aira	-9173
alic	-9174
alit	-9175
anca	-9176
andc	-9177
anit	-9178
arda	-9179
aret	-9180
arks	-9181
arti	-9182
asia	-9183
atsu	-9184
ault	-9185
bank	-9186
berl	-9187
bine	-9188
buff	-9189
case	-9190
clop	-9191
deep	-9192
elsh	-9193
endl	-9194
ente	-9195
eren	-9196
erra	-9197
esin	-9198
eted	-9199
.),	-9200
Sat	-9201
Tor	-9202
Zed	-9203
alg	-9204
asd	-9205
bal	-9206
cho	-9207
eda	-9208
edo	-9209
eds	-9210
gov	-9211
hil	-9212
him	-9213
ima	-9214
ned	-9215
ori	-9216
oum	-9217
ugu	-9218
usb	-9219
vor	-9220
▁(4	-9221
▁MP	-9222
515.	-9223
Evol	-9224
acob	-9225
aler	-9226
arco	-9227
enic	-9228
flic	-9229
fold	-9230
from	-9231
gana	-9232
gett	-9233
good	-9234
hero	-9235
hous	-9236
iang	-9237
ichi	-9238
icod	-9239
idia	-9240
iego	-9241
ifeb	-9242
ilis	-9243
ilms	-9244
inux	-9245
irch	-9246
itaB	-9247
ithm	-9248
jima	-9249
kall	-9250
kelä	-9251
ldon	-9252
lobe	-9253
logy	-9254
makk	-9255
ocab	-9256
ocal	-9257
ocry	-9258
okeh	-9259
olia	-9260
olok	-9261
olul	-9262
omon	-9263
once	-9264
only	-9265
oody	-9266
open	-9267
opol	-9268
oric	-9269
orly	-9270
osti	-9271
oted	-9272
otos	-9273
otst	-9274
pell	-9275
phal	-9276
pick	-9277
plom	-9278
pole	-9279
pond	-9280
quir	-9281
rama	-9282
rave	-9283
rect	-9284
reme	-9285
rial	-9286
rogm	-9287
roux	-9288
ruff	-9289
ruhe	-9290
ruse	-9291
ryon	-9292
sets	-9293
sion	-9294
sour	-9295
tags	-9296
thew	-9297
thon	-9298
toum	-9299
-6.	-9300
Lis	-9301
ano	-9302
cuy	-9303
oic	-9304
vis	-9305
4-6.	-9306
DAIA	-9307
Lisp	-9308
achi	-9309
agne	-9310
aran	-9311
ares	-9312
cked	-9313
ectr	-9314
elix	-9315
elts	-9316
ging	-9317
hing	-9318
indu	-9319
ingF	-9320
inki	-9321
isal	-9322
kill	-9323
ogot	-9324
olid	-9325
omin	-9326
otts	-9327
rano	-9328
trac	-9329
tree	-9330
turb	-9331
udap	-9332
umed	-9333
unic	-9334
upid	-9335
uren	-9336
urre	-9337
usal	-9338
used	-9339
veil	-9340
weil	-9341
werp	-9342
▁"25	-9343
▁(3)	-9344
▁1.4	-9345
▁118	-9346
▁119	-9347
▁120	-9348
▁14.	-9349
▁144	-9350
▁15.	-9351
▁247	-9352
▁25,	-9353
▁27,	-9354
▁42.	-9355
▁725	-9356
▁84.	-9357
▁91,	-9358
▁:46	-9359
▁AIE	-9360
▁Aro	-9361
▁Ars	-9362
▁BIT	-9363
▁Bab	-9364
▁Bal	-9365
▁Bez	-9366
▁Bib	-9367
▁Bil	-9368
▁Bur	-9369
▁Cab	-9370
▁Che	-9371
▁DST	-9372
▁Doc	-9373
▁Dre	-9374
▁Equ	-9375
▁Ext	-9376
▁Far	-9377
▁Fed	-9378
▁Fis	-9379
▁Fut	-9380
▁Gam	-9381
▁Gay	-9382
▁Gaz	-9383
▁Han	-9384
▁Hed	-9385
▁Hof	-9386
▁Hyp	-9387
▁IHC	-9388
▁Ian	-9389
▁Iim	-9390
▁Iqu	-9391
▁Kyr	-9392
▁Lac	-9393
▁Las	-9394
▁LeC	-9395
▁Len	-9396
▁Lex	-9397
▁McL	-9398
▁Mis	-9399
Mur	-9400
agg	-9401
bel	-9402
del	-9403
hat	-9404
kit	-9405
lle	-9406
zel	-9407
▁1-	-9408
▁59	-9409
▁AB	-9410
▁Ai	-9411
▁Aw	-9412
▁CL	-9413
▁IP	-9414
▁fu	-9415
-13-	-9416
967.	-9417
agew	-9418
aset	-9419
asol	-9420
aton	-9421
birt	-9422
delk	-9423
edel	-9424
okyo	-9425
▁204	-9426
▁Ain	-9427
▁Att	-9428
▁Cer	-9429
▁Eff	-9430
▁Fey	-9431
▁Fos	-9432
▁Hao	-9433
▁Mor	-9434
▁Mou	-9435
▁NET	-9436
▁NIT	-9437
▁Naf	-9438
▁Nep	-9439
▁Nog	-9440
▁Opt	-9441
▁PSM	-9442
▁Pop	-9443
▁Ric	-9444
▁Row	-9445
▁Say	-9446
▁Sem	-9447
▁Sex	-9448
▁Sid	-9449
▁Sir	-9450
▁TVS	-9451
▁Ted	-9452
▁Tow	-9453
▁Tut	-9454
▁Unw	-9455
▁Ver	-9456
▁Viv	-9457
▁Wes	-9458
▁XML	-9459
▁Xil	-9460
▁Yok	-9461
▁Zor	-9462
▁adj	-9463
▁ast	-9464
▁bid	-9465
▁bow	-9466
▁cho	-9467
▁cog	-9468
▁cur	-9469
▁dro	-9470
▁dun	-9471
▁ego	-9472
▁etc	-9473
▁fon	-9474
▁haz	-9475
▁hop	-9476
▁ice	-9477
▁imp	-9478
▁ina	-9479
▁inn	-9480
▁jus	-9481
▁lif	-9482
▁liv	-9483
▁mad	-9484
▁mas	-9485
▁mil	-9486
▁mir	-9487
▁mur	-9488
▁nod	-9489
▁pec	-9490
▁pen	-9491
▁por	-9492
▁pun	-9493
▁ran	-9494
▁reb	-9495
▁rig	-9496
▁rot	-9497
▁sed	-9498
▁sky	-9499
-83	-9500
asw	-9501
asz	-9502
bro	-9503
cre	-9504
fas	-9505
gre	-9506
iba	-9507
lok	-9508
ras	-9509
rip	-9510
riy	-9511
rou	-9512
▁DA	-9513
▁GE	-9514
▁IA	-9515
▁IV	-9516
▁dh	-9517
▁dr	-9518
aunt	-9519
comb	-9520
echv	-9521
gano	-9522
hiyu	-9523
ilog	-9524
impl	-9525
jiba	-9526
orem	-9527
▁500	-9528
▁Cub	-9529
▁Jid	-9530
▁Lad	-9531
▁Roc	-9532
▁Tan	-9533
▁bor	-9534
▁har	-9535
▁lot	-9536
▁men	-9537
▁nem	-9538
▁off	-9539
▁sou	-9540
▁spa	-9541
▁spy	-9542
▁ted	-9543
▁tie	-9544
▁toy	-9545
▁tri	-9546
▁vac	-9547
▁van	-9548
▁vul	-9549
▁wis	-9550
-01-1	-9551
-2017	-9552
-8379	-9553
05111	-9554
Aware	-9555
ECCAI	-9556
Fired	-9557
OSAIC	-9558
Phone	-9559
Power	-9560
RCGCG	-9561
These	-9562
Third	-9563
Union	-9564
World	-9565
abits	-9566
abula	-9567
acent	-9568
acker	-9569
aires	-9570
aisal	-9571
akura	-9572
alert	-9573
allry	-9574
andha	-9575
andon	-9576
anies	-9577
anton	-9578
aotic	-9579
aphor	-9580
arifi	-9581
arila	-9582
arios	-9583
arthi	-9584
asion	-9585
atbed	-9586
atchy	-9587
atics	-9588
ayash	-9589
azaar	-9590
bilis	-9591
craft	-9592
cuyer	-9593
dance	-9594
eTime	-9595
eeing	-9596
eeped	-9597
elers	-9598
ellur	-9599
20)	-9600
820	-9601
Big	-9602
ZEl	-9603
dle	-9604
eym	-9605
hou	-9606
iot	-9607
izu	-9608
nom	-9609
▁SL	-9610
▁SV	-9611
▁Si	-9612
▁ly	-9613
-27.	-9614
4-11	-9615
62),	-9616
BigP	-9617
CPUs	-9618
YZEl	-9619
aghy	-9620
chan	-9621
elle	-9622
enos	-9623
enth	-9624
▁150	-9625
▁Men	-9626
▁Miy	-9627
▁Rol	-9628
▁Sit	-9629
▁Tes	-9630
▁cum	-9631
▁han	-9632
▁lod	-9633
▁mom	-9634
84-11	-9635
addle	-9636
annes	-9637
arers	-9638
const	-9639
ember	-9640
eport	-9641
eptic	-9642
equal	-9643
erved	-9644
esser	-9645
estar	-9646
estim	-9647
estro	-9648
ethat	-9649
every	-9650
eward	-9651
forem	-9652
haugh	-9653
heast	-9654
herst	-9655
ibern	-9656
icing	-9657
ictim	-9658
iding	-9659
ience	-9660
iency	-9661
ienne	-9662
ignum	-9663
ilies	-9664
imals	-9665
imize	-9666
imizu	-9667
inery	-9668
ingly	-9669
ishes	-9670
ishop	-9671
isode	-9672
ithri	-9673
itlam	-9674
itors	-9675
ivial	-9676
iwork	-9677
izave	-9678
ketch	-9679
lared	-9680
loral	-9681
nomer	-9682
obase	-9683
obile	-9684
oders	-9685
ogged	-9686
ogues	-9687
oling	-9688
ollow	-9689
ommod	-9690
onial	-9691
onney	-9692
onoun	-9693
ordin	-9694
orful	-9695
orner	-9696
ortly	-9697
osses	-9698
ostat	-9699
olo	-9700
vil	-9701
vol	-9702
wap	-9703
▁Cc	-9704
▁Cr	-9705
▁Mo	-9706
▁Mr	-9707
▁ec	-9708
▁hy	-9709
-671	-9710
71-9	-9711
Land	-9712
arms	-9713
eleg	-9714
erse	-9715
hlsd	-9716
icol	-9717
itol	-9718
malf	-9719
ppel	-9720
ride	-9721
ront	-9722
yers	-9723
▁174	-9724
▁Car	-9725
▁Cat	-9726
▁Ded	-9727
▁Inv	-9728
▁Mom	-9729
▁Von	-9730
▁WSD	-9731
▁Xab	-9732
▁beg	-9733
▁lit	-9734
▁lou	-9735
▁pul	-9736
aipei	-9737
andig	-9738
apons	-9739
elanc	-9740
ighth	-9741
oured	-9742
owery	-9743
phins	-9744
poned	-9745
puses	-9746
ragón	-9747
ranet	-9748
ransl	-9749
rared	-9750
rayed	-9751
reece	-9752
rence	-9753
ronze	-9754
rowed	-9755
ruber	-9756
schun	-9757
shots	-9758
sover	-9759
sters	-9760
stral	-9761
tered	-9762
thank	-9763
ticed	-9764
tices	-9765
tiers	-9766
tilis	-9767
tisan	-9768
ustol	-9769
uters	-9770
uting	-9771
uzawa	-9772
veler	-9773
zeman	-9774
▁1812	-9775
▁1979	-9776
▁1998	-9777
▁1:54	-9778
▁1:57	-9779
▁3000	-9780
▁3:51	-9781
▁5:07	-9782
▁7:50	-9783
▁AGAD	-9784
▁AISB	-9785
▁Ames	-9786
▁Angl	-9787
▁Apps	-9788
▁Asaf	-9789
▁Bald	-9790
▁Bond	-9791
▁Brad	-9792
▁Cari	-9793
▁Cell	-9794
▁Cost	-9795
▁Deut	-9796
▁Digi	-9797
▁Dmit	-9798
▁Duan	-9799
?,"	-9800
Day	-9801
Gra	-9802
dep	-9803
fun	-9804
gry	-9805
idn	-9806
urd	-9807
use	-9808
yso	-9809
▁(1	-9810
▁(2	-9811
▁22	-9812
▁FM	-9813
▁Nv	-9814
▁kn	-9815
Have	-9816
Kore	-9817
alax	-9818
arah	-9819
arni	-9820
oinc	-9821
orus	-9822
pool	-9823
raus	-9824
rell	-9825
rian	-9826
ssan	-9827
▁116	-9828
▁God	-9829
▁Gop	-9830
▁Pas	-9831
▁cra	-9832
▁fut	-9833
▁isn	-9834
▁mun	-9835
▁sus	-9836
Graff	-9837
agers	-9838
ambia	-9839
antab	-9840
asein	-9841
depth	-9842
icist	-9843
itsky	-9844
sterd	-9845
urdly	-9846
users	-9847
ysock	-9848
▁6:00	-9849
▁Eden	-9850
▁Eino	-9851
▁Ever	-9852
▁Fake	-9853
▁Farh	-9854
▁Fast	-9855
▁Fill	-9856
▁Furr	-9857
▁Grid	-9858
▁Gund	-9859
▁Hail	-9860
▁Have	-9861
▁High	-9862
▁Hugg	-9863
▁ISSN	-9864
▁Inma	-9865
▁Iris	-9866
▁Isle	-9867
▁Jack	-9868
▁Jean	-9869
▁Jews	-9870
▁Kabe	-9871
▁Kind	-9872
▁Krus	-9873
▁Left	-9874
▁Leis	-9875
▁Lith	-9876
▁Lons	-9877
▁Main	-9878
▁Mall	-9879
▁Manu	-9880
▁Mari	-9881
▁Miri	-9882
▁Modi	-9883
▁Mong	-9884
▁NGOs	-9885
▁Naka	-9886
▁Next	-9887
▁Nico	-9888
▁Olga	-9889
▁Pack	-9890
▁Past	-9891
▁Perl	-9892
▁Pers	-9893
▁Phys	-9894
▁Play	-9895
▁Rank	-9896
▁Real	-9897
▁Requ	-9898
▁Risé	-9899
RAI	-9900
aim	-9901
cid	-9902
hau	-9903
imo	-9904
iun	-9905
phw	-9906
▁84	-9907
▁BT	-9908
▁Fm	-9909
▁Ri	-9910
▁Ry	-9911
▁ur	-9912
DSHI	-9913
GRPO	-9914
ecid	-9915
erve	-9916
hair	-9917
iley	-9918
limo	-9919
roid	-9920
▁Bin	-9921
▁CRM	-9922
▁Kal	-9923
▁Mid	-9924
▁PBS	-9925
▁Ron	-9926
▁gap	-9927
▁gig	-9928
▁gon	-9929
▁hoc	-9930
▁nar	-9931
▁nur	-9932
▁reC	-9933
▁rus	-9934
Chair	-9935
DSHIV	-9936
aimag	-9937
armac	-9938
aside	-9939
ecure	-9940
ewart	-9941
inued	-9942
lucid	-9943
ombia	-9944
oness	-9945
phwai	-9946
pursu	-9947
small	-9948
▁112.	-9949
▁BTIO	-9950
▁Bent	-9951
▁Cudd	-9952
▁Fmgr	-9953
▁Ring	-9954
▁Ripp	-9955
▁Riva	-9956
▁Rose	-9957
▁Rusp	-9958
▁Sean	-9959
▁Seph	-9960
▁Serb	-9961
▁Side	-9962
▁Snap	-9963
▁Soug	-9964
▁Sout	-9965
▁Stad	-9966
▁TPUs	-9967
▁Tenc	-9968
▁Tess	-9969
▁TheH	-9970
▁Trac	-9971
▁Trax	-9972
▁Trek	-9973
▁Verm	-9974
▁Walk	-9975
▁Wers	-9976
▁Word	-9977
▁Yand	-9978
▁Ziel	-9979
▁actu	-9980
▁agre	-9981
▁alic	-9982
▁ausp	-9983
▁bass	-9984
▁blis	-9985
▁bloc	-9986
▁cart	-9987
▁cite	-9988
▁clin	-9989
▁coca	-9990
▁coke	-9991
▁dail	-9992
▁debt	-9993
▁desp	-9994
▁dont	-9995
▁dora	-9996
▁dron	-9997
▁echo	-9998
▁ends	-9999
-5.	-10000
00)	-10001
acl	-10002
amn	-10003
dem	-10004
pay	-10005
sam	-10006
▁EO	-10007
▁ET	-10008
▁HQ	-10009
▁Hu	-10010
▁YS	-10011
▁ir	-10012
amed	-10013
gins	-10014
inet	-10015
irus	-10016
ivan	-10017
olly	-10018
oves	-10019
xion	-10020
▁240	-10021
▁AIO	-10022
▁Fur	-10023
▁Hat	-10024
▁Jim	-10025
▁Mir	-10026
▁Slo	-10027
▁anc	-10028
▁gam	-10029
▁ham	-10030
▁lam	-10031
▁net	-10032
Offic	-10033
shals	-10034
▁Club	-10035
▁Damn	-10036
▁Fosc	-10037
▁Gent	-10038
▁Obsc	-10039
▁asle	-10040
▁euro	-10041
▁fast	-10042
▁fell	-10043
▁fift	-10044
▁fore	-10045
▁geek	-10046
▁gets	-10047
▁gold	-10048
▁gone	-10049
▁hash	-10050
▁here	-10051
▁hier	-10052
▁iTun	-10053
▁ille	-10054
▁indu	-10055
▁inex	-10056
▁inte	-10057
▁jeal	-10058
▁keyn	-10059
▁kind	-10060
▁laid	-10061
▁lies	-10062
▁lock	-10063
▁lode	-10064
▁ment	-10065
▁myst	-10066
▁nick	-10067
▁nine	-10068
▁once	-10069
▁peri	-10070
▁prod	-10071
▁prof	-10072
▁puzz	-10073
▁reor	-10074
▁riot	-10075
▁roll	-10076
▁safe	-10077
▁sand	-10078
▁sell	-10079
▁stop	-10080
▁surg	-10081
▁tank	-10082
▁teen	-10083
▁tell	-10084
▁thor	-10085
▁thre	-10086
▁ties	-10087
▁tons	-10088
▁vert	-10089
▁wild	-10090
▁worm	-10091
-2024)	-10092
00,000	-10093
1995).	-10094
2009).	-10095
Humans	-10096
Little	-10097
Minist	-10098
Recomm	-10099
ETs	-10100
Mad	-10101
Pad	-10102
ada	-10103
adb	-10104
adi	-10105
bao	-10106
dot	-10107
fac	-10108
jab	-10109
osn	-10110
ota	-10111
▁1)	-10112
▁DB	-10113
▁Di	-10114
▁Du	-10115
▁Dy	-10116
-072	-10117
Fold	-10118
GPUs	-10119
Love	-10120
PETs	-10121
What	-10122
adow	-10123
bits	-10124
echa	-10125
ogic	-10126
otal	-10127
otel	-10128
reci	-10129
rupt	-10130
stad	-10131
ueen	-10132
umie	-10133
يقات	-10134
▁6.5	-10135
▁Abb	-10136
▁Dar	-10137
▁Dat	-10138
▁Del	-10139
▁Dog	-10140
▁Dou	-10141
▁Mot	-10142
▁Veo	-10143
▁adm	-10144
▁alc	-10145
▁alt	-10146
▁cot	-10147
▁dad	-10148
cting	-10149
eless	-10150
ensei	-10151
ikari	-10152
water	-10153
▁300:	-10154
▁Beau	-10155
▁DBLP	-10156
▁Dial	-10157
▁Kult	-10158
▁Nosn	-10159
▁Ress	-10160
▁iPad	-10161
▁sess	-10162
-07211	-10163
Vision	-10164
actory	-10165
aktoum	-10166
aneous	-10167
anning	-10168
antent	-10169
aptive	-10170
arayev	-10171
arding	-10172
arking	-10173
arsing	-10174
ashdot	-10175
ateral	-10176
avarti	-10177
budget	-10178
buffed	-10179
ciplin	-10180
comfor	-10181
coming	-10182
create	-10183
dation	-10184
earing	-10185
ebarri	-10186
ebrate	-10187
eddiki	-10188
eekend	-10189
elines	-10190
embles	-10191
enever	-10192
enized	-10193
ennial	-10194
ensely	-10195
entary	-10196
enthes	-10197
entice	-10198
entive	-10199
9-1	-10200
aci	-10201
fts	-10202
lab	-10203
num	-10204
umn	-10205
yna	-10206
▁GD	-10207
▁Ud	-10208
DNet	-10209
Five	-10210
VCEG	-10211
aber	-10212
abet	-10213
asts	-10214
eedy	-10215
ixby	-10216
paci	-10217
▁Gel	-10218
▁Hod	-10219
-1986	-10220
FISMA	-10221
Weave	-10222
ataan	-10223
atode	-10224
hered	-10225
moval	-10226
pleas	-10227
prong	-10228
raków	-10229
ticky	-10230
wrote	-10231
▁1945	-10232
▁Fing	-10233
▁GDPR	-10234
▁Help	-10235
▁Mare	-10236
▁abst	-10237
▁ally	-10238
▁dark	-10239
▁gosp	-10240
▁husb	-10241
▁sist	-10242
5-09-1	-10243
chools	-10244
essino	-10245
estion	-10246
etence	-10247
ficial	-10248
funded	-10249
greedy	-10250
hipley	-10251
histri	-10252
hosted	-10253
houses	-10254
iaries	-10255
identi	-10256
ilarly	-10257
imatic	-10258
impact	-10259
inuous	-10260
invest	-10261
ipsets	-10262
iscell	-10263
istent	-10264
itment	-10265
jhieva	-10266
kshata	-10267
lights	-10268
listed	-10269
mental	-10270
mining	-10271
mässan	-10272
native	-10273
nesota	-10274
number	-10275
ocated	-10276
ometry	-10277
ompany	-10278
ootage	-10279
orsing	-10280
ortion	-10281
ostile	-10282
otyped	-10283
ousand	-10284
pating	-10285
pected	-10286
placed	-10287
preced	-10288
racism	-10289
radeep	-10290
redits	-10291
ribune	-10292
rogmet	-10293
rorism	-10294
rosoph	-10295
rouser	-10296
rushal	-10297
scolle	-10298
scruff	-10299
0-1	-10300
900	-10301
CRA	-10302
New	-10303
may	-10304
tha	-10305
thm	-10306
▁"?	-10307
▁JD	-10308
▁OE	-10309
▁OS	-10310
▁Of	-10311
▁Ow	-10312
AAAI	-10313
CCEP	-10314
CRAM	-10315
agot	-10316
ayre	-10317
dney	-10318
ewed	-10319
iken	-10320
ocke	-10321
roph	-10322
rust	-10323
stun	-10324
unis	-10325
▁'11	-10326
▁Cay	-10327
▁Jay	-10328
▁Lar	-10329
▁Led	-10330
▁Oil	-10331
▁Rag	-10332
▁Rul	-10333
▁bay	-10334
▁eds	-10335
▁sun	-10336
▁tag	-10337
-10-1	-10338
Allen	-10339
Neuro	-10340
alone	-10341
anged	-10342
ecute	-10343
story	-10344
udden	-10345
▁'11.	-10346
▁2029	-10347
▁Gear	-10348
▁Lagh	-10349
▁Lord	-10350
▁OEMs	-10351
▁OSTP	-10352
▁Omar	-10353
▁Post	-10354
▁QCRI	-10355
▁Suns	-10356
▁Turk	-10357
▁Zafr	-10358
ISCRAM	-10359
NeuroT	-10360
ilding	-10361
nowden	-10362
terbot	-10363
thmics	-10364
uality	-10365
uching	-10366
umbent	-10367
umenta	-10368
unisia	-10369
urring	-10370
usatsu	-10371
veiled	-10372
venote	-10373
ysocka	-10374
yville	-10375
▁1,900	-10376
▁1953,	-10377
▁1955,	-10378
▁1971)	-10379
▁1979)	-10380
▁1989,	-10381
▁2003.	-10382
▁2017"	-10383
▁2023)	-10384
▁2028,	-10385
▁5,000	-10386
▁Abano	-10387
▁Achie	-10388
▁Aleph	-10389
▁Align	-10390
▁Allis	-10391
▁Amano	-10392
▁Asian	-10393
▁Autob	-10394
▁Autod	-10395
▁Balib	-10396
▁Bases	-10397
▁Bhatt	-10398
▁Bixby	-10399
IAP	-10400
bul	-10401
▁KU	-10402
)(3)	-10403
-701	-10404
arey	-10405
hood	-10406
orsk	-10407
ribe	-10408
terr	-10409
udes	-10410
udha	-10411
ulen	-10412
▁59,	-10413
▁Nar	-10414
▁Now	-10415
▁Occ	-10416
▁Sop	-10417
▁cop	-10418
exten	-10419
iazhu	-10420
iyama	-10421
pagew	-10422
takes	-10423
which	-10424
zweil	-10425
▁CAMP	-10426
▁Eind	-10427
▁Iter	-10428
▁Mond	-10429
▁Mush	-10430
▁NASD	-10431
▁Rhet	-10432
▁Yale	-10433
▁Yvet	-10434
▁flow	-10435
▁iter	-10436
▁stay	-10437
▁wall	-10438
Should	-10439
athers	-10440
egorsk	-10441
enthau	-10442
ousing	-10443
owment	-10444
porary	-10445
▁Blade	-10446
▁Bogot	-10447
▁Bolog	-10448
▁Boris	-10449
▁Brave	-10450
▁Brief	-10451
▁Carey	-10452
▁Const	-10453
▁Costs	-10454
▁Cover	-10455
▁Cubed	-10456
▁Cycle	-10457
▁Daugh	-10458
▁Denge	-10459
▁Dolan	-10460
▁Dynam	-10461
▁Fable	-10462
▁Felic	-10463
▁Frank	-10464
▁Furuk	-10465
▁GOFAI	-10466
▁GameR	-10467
▁Gaunt	-10468
▁Ghost	-10469
▁Goals	-10470
▁Gopin	-10471
▁Graph	-10472
▁Green	-10473
▁Hotel	-10474
▁Hyder	-10475
▁Hydro	-10476
▁IDIAP	-10477
▁Infek	-10478
▁Inver	-10479
▁Istan	-10480
▁Jonas	-10481
▁Kevin	-10482
▁Krets	-10483
▁Krizo	-10484
▁KyleH	-10485
▁Larry	-10486
▁Levin	-10487
▁Linux	-10488
▁Masay	-10489
▁Momoi	-10490
▁Netfl	-10491
▁Nicod	-10492
▁Norms	-10493
▁Novas	-10494
▁Outer	-10495
▁Owner	-10496
▁Palap	-10497
▁Pasad	-10498
▁Patry	-10499
-1;	-10500
CEO	-10501
ios	-10502
yac	-10503
▁24	-10504
▁75	-10505
▁KN	-10506
▁vs	-10507
▁لل	-10508
ARON	-10509
DRDO	-10510
From	-10511
Tech	-10512
aped	-10513
cles	-10514
erts	-10515
jail	-10516
lian	-10517
ocos	-10518
orri	-10519
ques	-10520
rien	-10521
tech	-10522
tica	-10523
urom	-10524
urts	-10525
▁III	-10526
▁Rub	-10527
▁Taw	-10528
▁esc	-10529
▁lex	-10530
▁ord	-10531
▁von	-10532
▁yak	-10533
,000-	-10534
inach	-10535
itech	-10536
liani	-10537
orche	-10538
osion	-10539
point	-10540
state	-10541
usion	-10542
▁2027	-10543
▁247,	-10544
▁2:38	-10545
▁2:46	-10546
▁Cold	-10547
▁Euin	-10548
▁Mine	-10549
▁Newn	-10550
▁Upsc	-10551
▁albe	-10552
▁cash	-10553
▁dead	-10554
▁doll	-10555
▁hate	-10556
▁lect	-10557
▁line	-10558
▁suic	-10559
▁vent	-10560
▁yaku	-10561
anners	-10562
ellate	-10563
encing	-10564
iosity	-10565
tiques	-10566
uthors	-10567
▁2011;	-10568
▁2017.	-10569
▁AARON	-10570
▁Below	-10571
▁Chamb	-10572
▁Incun	-10573
▁KNIME	-10574
▁Peace	-10575
▁PyTor	-10576
▁Qatar	-10577
▁Rakes	-10578
▁Rocky	-10579
▁Sales	-10580
▁Schul	-10581
▁Sciss	-10582
▁Serve	-10583
▁Slopp	-10584
▁Socos	-10585
▁Stake	-10586
▁Stone	-10587
▁Synop	-10588
▁Tamar	-10589
▁Thail	-10590
▁Theod	-10591
▁Titus	-10592
▁Torch	-10593
▁Trude	-10594
▁UNICE	-10595
▁Units	-10596
▁Vectr	-10597
▁Vedel	-10598
▁Wired	-10599
512	-10600
aph	-10601
via	-10602
7489	-10603
Ital	-10604
ancy	-10605
bund	-10606
iest	-10607
mits	-10608
mous	-10609
mund	-10610
neat	-10611
rash	-10612
test	-10613
uage	-10614
ysts	-10615
▁Rev	-10616
▁spr	-10617
BIGAI	-10618
ables	-10619
andre	-10620
ardic	-10621
condu	-10622
endra	-10623
eston	-10624
estor	-10625
ifies	-10626
ildly	-10627
odies	-10628
▁"...	-10629
▁9779	-10630
▁Blob	-10631
▁Form	-10632
▁Karp	-10633
▁Lies	-10634
▁Stat	-10635
▁Sure	-10636
▁Uber	-10637
▁hang	-10638
▁heur	-10639
▁mach	-10640
▁pest	-10641
-13-79	-10642
74898.	-10643
ardous	-10644
erated	-10645
mildly	-10646
oelect	-10647
ribing	-10648
stands	-10649
▁1976.	-10650
▁2,512	-10651
▁97798	-10652
▁Blend	-10653
▁Fiske	-10654
▁Gears	-10655
▁Laden	-10656
▁abund	-10657
▁accid	-10658
▁acron	-10659
▁acted	-10660
▁airut	-10661
▁alias	-10662
▁ambig	-10663
▁amend	-10664
▁angry	-10665
▁arise	-10666
▁aside	-10667
▁attit	-10668
▁beach	-10669
▁begun	-10670
▁bests	-10671
▁bliss	-10672
▁brute	-10673
▁built	-10674
▁cerem	-10675
▁chess	-10676
▁close	-10677
▁comic	-10678
▁decip	-10679
▁deple	-10680
▁depth	-10681
▁disag	-10682
▁discl	-10683
▁dozen	-10684
▁embry	-10685
▁equip	-10686
▁etern	-10687
▁fired	-10688
▁force	-10689
▁funds	-10690
▁going	-10691
▁grade	-10692
▁honba	-10693
▁hopes	-10694
▁horse	-10695
▁innoc	-10696
▁instr	-10697
▁inten	-10698
▁knife	-10699
ako	-10700
gee	-10701
gey	-10702
tok	-10703
6-1.	-10704
Mart	-10705
Mich	-10706
RIES	-10707
USGS	-10708
ainy	-10709
anya	-10710
edge	-10711
hart	-10712
many	-10713
mart	-10714
oked	-10715
opyr	-10716
ullo	-10717
wich	-10718
▁194	-10719
▁Apo	-10720
▁Jak	-10721
▁cha	-10722
-08-3	-10723
16-1.	-10724
ARIES	-10725
acart	-10726
agues	-10727
amour	-10728
ludes	-10729
oking	-10730
techn	-10731
token	-10732
ublic	-10733
▁Beat	-10734
▁Dune	-10735
▁Hart	-10736
▁Iain	-10737
▁Mudd	-10738
▁Pain	-10739
▁Pega	-10740
▁Yako	-10741
▁food	-10742
▁hour	-10743
▁subg	-10744
▁warm	-10745
▁العم	-10746
Murati	-10747
Public	-10748
arters	-10749
esents	-10750
format	-10751
ounted	-10752
pering	-10753
▁1942)	-10754
▁1980)	-10755
▁1984,	-10756
▁Arbor	-10757
▁Budap	-10758
▁CityS	-10759
▁Copyr	-10760
▁Diego	-10761
▁Jakob	-10762
▁Metac	-10763
▁Minec	-10764
▁Taira	-10765
▁Tanya	-10766
▁agrib	-10767
▁heart	-10768
▁logar	-10769
▁misin	-10770
▁newly	-10771
▁niche	-10772
▁pilot	-10773
▁polym	-10774
▁poser	-10775
▁poses	-10776
▁prede	-10777
▁prepr	-10778
▁proac	-10779
▁probe	-10780
▁pseud	-10781
▁queer	-10782
▁ranks	-10783
▁rated	-10784
▁rates	-10785
▁ratio	-10786
▁recre	-10787
▁reduc	-10788
▁reuse	-10789
▁semia	-10790
▁sends	-10791
▁sight	-10792
▁stage	-10793
▁stays	-10794
▁suite	-10795
▁tempo	-10796
▁tenth	-10797
▁thats	-10798
▁theor	-10799
-02	-10800
RFs	-10801
Viz	-10802
▁4.	-10803
Vizc	-10804
arna	-10805
ebel	-10806
hore	-10807
ifts	-10808
lage	-10809
pern	-10810
usto	-10811
▁Ahn	-10812
▁HAW	-10813
▁Lee	-10814
▁fee	-10815
▁plc	-10816
-02-1	-10817
2024)	-10818
endum	-10819
illed	-10820
often	-10821
serve	-10822
sound	-10823
▁3:33	-10824
▁Cere	-10825
▁Fron	-10826
▁Gary	-10827
▁Gene	-10828
▁HAWG	-10829
▁Haus	-10830
▁Here	-10831
▁Hide	-10832
▁Horn	-10833
▁Mary	-10834
▁Page	-10835
▁TEDx	-10836
▁Tree	-10837
▁Vill	-10838
▁plot	-10839
-02-15	-10840
62024)	-10841
arayan	-10842
atsune	-10843
endect	-10844
ietnam	-10845
usters	-10846
▁Brash	-10847
▁Carlo	-10848
▁NeRFs	-10849
▁Quake	-10850
▁Singh	-10851
▁Stage	-10852
▁coron	-10853
▁lower	-10854
▁redes	-10855
▁therm	-10856
▁thing	-10857
▁tours	-10858
▁tvSci	-10859
▁urged	-10860
▁views	-10861
▁volun	-10862
▁wheat	-10863
▁wheel	-10864
▁wider	-10865
▁witch	-10866
▁worry	-10867
▁wùdào	-10868
-10-10.	-10869
-2022),	-10870
421367.	-10871
7284-11	-10872
English	-10873
Lattice	-10874
Madison	-10875
Remixed	-10876
Spanish	-10877
Unified	-10878
Vizcaya	-10879
Winston	-10880
aceswap	-10881
achtree	-10882
acities	-10883
ackdown	-10884
agotchi	-10885
alities	-10886
amiliar	-10887
aracter	-10888
arkable	-10889
arnered	-10890
atories	-10891
berlake	-10892
ceptive	-10893
cessing	-10894
cessive	-10895
channel	-10896
ctively	-10897
curated	-10898
democra	-10899
Geb	-10900
MCU	-10901
vie	-10902
▁Ku	-10903
Gebe	-10904
Song	-10905
bota	-10906
ikes	-10907
news	-10908
rele	-10909
▁9.4	-10910
▁Kat	-10911
▁Kra	-10912
▁Kum	-10913
▁Veb	-10914
▁Vul	-10915
▁wik	-10916
-07-2	-10917
Crash	-10918
attab	-10919
borne	-10920
cased	-10921
iable	-10922
ilian	-10923
orton	-10924
rates	-10925
vador	-10926
▁304.	-10927
▁6.03	-10928
▁Dong	-10929
▁Gran	-10930
▁ICAA	-10931
▁Kart	-10932
▁Kate	-10933
▁Kuhn	-10934
▁Tele	-10935
▁bond	-10936
▁peti	-10937
▁tong	-10938
1-07-2	-10939
celona	-10940
ension	-10941
incred	-10942
rlbaum	-10943
viated	-10944
▁(1971	-10945
▁2002,	-10946
▁2024)	-10947
▁Bicol	-10948
▁Karls	-10949
▁Katya	-10950
▁Spore	-10951
▁Yetep	-10952
▁arith	-10953
▁dates	-10954
▁edits	-10955
▁erase	-10956
▁hyper	-10957
▁inher	-10958
▁movie	-10959
▁prose	-10960
MMORPGs	-10961
digital	-10962
earance	-10963
elligen	-10964
emotion	-10965
enetian	-10966
entient	-10967
essment	-10968
etitive	-10969
forcing	-10970
icating	-10971
ilvania	-10972
irdness	-10973
iritual	-10974
itating	-10975
iticize	-10976
itioned	-10977
journal	-10978
lassics	-10979
leyball	-10980
mapping	-10981
mically	-10982
ministr	-10983
oefully	-10984
oincide	-10985
olicies	-10986
ologism	-10987
orseien	-10988
perform	-10989
perhaps	-10990
rainian	-10991
redited	-10992
rically	-10993
roaches	-10994
rowsing	-10995
ruistic	-10996
rupting	-10997
sourced	-10998
stunned	-10999
"),	-11000
▁29	-11001
▁Yo	-11002
Pang	-11003
Rang	-11004
came	-11005
edup	-11006
hism	-11007
pace	-11008
post	-11009
vant	-11010
▁Ads	-11011
▁Aya	-11012
▁Exp	-11013
▁GSN	-11014
▁Nib	-11015
▁Yes	-11016
▁imm	-11017
Books	-11018
Pangl	-11019
Track	-11020
ached	-11021
antee	-11022
antly	-11023
drama	-11024
entia	-11025
gents	-11026
great	-11027
ients	-11028
uchol	-11029
umann	-11030
vable	-11031
zstan	-11032
▁1000	-11033
▁2.04	-11034
▁4:23	-11035
▁Call	-11036
▁Cave	-11037
▁Core	-11038
▁FACS	-11039
▁Fang	-11040
▁Gall	-11041
▁Nirm	-11042
▁Pile	-11043
▁Yang	-11044
▁call	-11045
▁cant	-11046
▁cris	-11047
▁face	-11048
▁keyw	-11049
▁nost	-11050
▁save	-11051
▁snap	-11052
▁tall	-11053
▁tick	-11054
▁want	-11055
▁ware	-11056
Ranger	-11057
brated	-11058
edupub	-11059
iances	-11060
onents	-11061
ootnot	-11062
reyfus	-11063
ticism	-11064
▁(1977	-11065
▁Exper	-11066
▁Juman	-11067
▁Nibal	-11068
▁Shlok	-11069
▁airst	-11070
Panglao	-11071
arantee	-11072
gyzstan	-11073
tenance	-11074
tenuate	-11075
terbots	-11076
theless	-11077
tionary	-11078
tioning	-11079
uestion	-11080
ulative	-11081
unction	-11082
ussions	-11083
viction	-11084
viously	-11085
visions	-11086
western	-11087
writing	-11088
xebarri	-11089
ymilian	-11090
▁(1977,	-11091
▁(1995,	-11092
▁(2023)	-11093
▁1990),	-11094
▁1995),	-11095
▁1999).	-11096
▁199920	-11097
▁201420	-11098
▁2017).	-11099
").	-11100
001	-11101
4).	-11102
:28	-11103
Tru	-11104
ept	-11105
obs	-11106
▁).	-11107
▁3)	-11108
▁37	-11109
▁8:	-11110
Duet	-11111
Game	-11112
eyed	-11113
fare	-11114
ioff	-11115
ipal	-11116
manu	-11117
▁Gip	-11118
▁Lip	-11119
▁Raw	-11120
▁Sue	-11121
▁abl	-11122
▁ign	-11123
▁tip	-11124
-2007	-11125
GameG	-11126
enaud	-11127
first	-11128
ianex	-11129
irder	-11130
named	-11131
oroco	-11132
▁37.5	-11133
▁8:43	-11134
▁Jobs	-11135
▁Pass	-11136
▁Podc	-11137
▁Sonn	-11138
▁Tian	-11139
▁note	-11140
▁room	-11141
acular	-11142
assion	-11143
ignant	-11144
isions	-11145
manuel	-11146
sonian	-11147
▁27001	-11148
▁Adept	-11149
▁Arrow	-11150
▁Bests	-11151
▁Giphy	-11152
▁Istit	-11153
▁LocAI	-11154
▁Medak	-11155
▁Palms	-11156
▁Pluto	-11157
▁Seven	-11158
▁dream	-11159
▁ended	-11160
grative	-11161
million	-11162
▁180:28	-11163
▁2020",	-11164
▁37,000	-11165
▁AGADIC	-11166
▁Access	-11167
▁Adrien	-11168
▁Ammann	-11169
▁Anders	-11170
▁Anglia	-11171
▁Arabia	-11172
▁Barret	-11173
▁Bataan	-11174
▁BeReal	-11175
▁Beatty	-11176
▁Buddha	-11177
▁Camera	-11178
▁Canton	-11179
▁Caplan	-11180
▁Caribb	-11181
▁Cement	-11182
▁ChileE	-11183
▁Colfer	-11184
▁Common	-11185
▁Conant	-11186
▁Custom	-11187
▁Cybers	-11188
▁Debate	-11189
▁Debian	-11190
▁Detour	-11191
▁Differ	-11192
▁Dignum	-11193
▁Direct	-11194
▁Distin	-11195
▁Editor	-11196
▁Effect	-11197
▁Ethics	-11198
▁Faisal	-11199
-1)	-11200
sav	-11201
-5_1	-11202
Data	-11203
Scri	-11204
asov	-11205
blem	-11206
fire	-11207
onov	-11208
▁Alb	-11209
▁CIF	-11210
▁CIO	-11211
▁Daf	-11212
▁luc	-11213
▁yes	-11214
adata	-11215
cepti	-11216
could	-11217
savvy	-11218
title	-11219
would	-11220
▁3:57	-11221
▁Alan	-11222
▁Emer	-11223
▁FAIR	-11224
▁Home	-11225
▁Prot	-11226
▁Wien	-11227
▁perv	-11228
▁rain	-11229
▁site	-11230
▁unex	-11231
-5_13.	-11232
Script	-11233
dollar	-11234
ellite	-11235
lisher	-11236
rained	-11237
▁2018'	-11238
▁CIFAR	-11239
▁Dafoe	-11240
▁Modus	-11241
▁Prots	-11242
▁Remix	-11243
▁antit	-11244
▁derby	-11245
▁gover	-11246
▁libel	-11247
▁lucid	-11248
▁unite	-11249
▁upper	-11250
Pilmico	-11251
haronov	-11252
inistic	-11253
▁Accred	-11254
▁Brasov	-11255
▁Edmund	-11256
▁Feedly	-11257
▁Filmes	-11258
▁Follow	-11259
▁Geneva	-11260
▁Giroux	-11261
▁Golden	-11262
▁Ground	-11263
▁Halluc	-11264
▁Harmon	-11265
▁Hatake	-11266
▁Hubert	-11267
▁Hunger	-11268
▁Imagna	-11269
▁Ingram	-11270
▁Inside	-11271
▁Jewish	-11272
▁Jidoka	-11273
▁Karray	-11274
▁Kinsey	-11275
▁Lahore	-11276
▁Lastly	-11277
▁Lenovo	-11278
▁Lipson	-11279
▁Macron	-11280
▁Making	-11281
▁Mandar	-11282
▁Manual	-11283
▁Masaki	-11284
▁Matrix	-11285
▁Mirror	-11286
▁Mosaic	-11287
▁Papert	-11288
▁Patent	-11289
▁Patras	-11290
▁Poetry	-11291
▁Poorly	-11292
▁Powers	-11293
▁Proper	-11294
▁Public	-11295
▁Radica	-11296
▁Rakesh	-11297
▁Rashmi	-11298
▁Renaud	-11299
.".	-11300
3-5	-11301
?".	-11302
bie	-11303
die	-11304
oie	-11305
▁47	-11306
CAIR	-11307
ECAI	-11308
Gold	-11309
lack	-11310
pire	-11311
uxle	-11312
▁HAL	-11313
▁Luc	-11314
▁Raz	-11315
713-5	-11316
ancen	-11317
ariat	-11318
arpen	-11319
avish	-11320
brity	-11321
solve	-11322
unner	-11323
utors	-11324
▁APPN	-11325
▁Blur	-11326
▁DAng	-11327
▁Eoin	-11328
▁Nike	-11329
▁Owen	-11330
▁Pors	-11331
▁Vari	-11332
▁join	-11333
▁quer	-11334
▁reck	-11335
▁shut	-11336
▁vast	-11337
5713-5	-11338
jected	-11339
uehlsd	-11340
uxleys	-11341
▁Arjun	-11342
▁Cours	-11343
▁Jones	-11344
▁Langu	-11345
▁Lucas	-11346
▁Ricky	-11347
▁Scale	-11348
▁Vocab	-11349
▁asset	-11350
▁bookl	-11351
▁endow	-11352
▁pitch	-11353
▁quite	-11354
▁recru	-11355
▁recur	-11356
▁shall	-11357
▁sorts	-11358
▁thema	-11359
Chancen	-11360
instein	-11361
oinform	-11362
taining	-11363
▁Alicia	-11364
▁Clinic	-11365
▁Cohere	-11366
▁Letovo	-11367
▁Razvan	-11368
▁Report	-11369
▁Rising	-11370
▁Rivers	-11371
▁Robbie	-11372
▁Robust	-11373
▁Savoie	-11374
▁Schema	-11375
▁Search	-11376
▁Sergey	-11377
▁Slaugh	-11378
▁Stored	-11379
▁Storyt	-11380
▁Street	-11381
▁Sydney	-11382
▁Taipei	-11383
▁Techno	-11384
▁Tenhou	-11385
▁Veliar	-11386
▁Wilson	-11387
▁Wiltsh	-11388
▁Winson	-11389
▁Wirehe	-11390
▁Yandex	-11391
▁Zambia	-11392
▁actual	-11393
▁admire	-11394
▁advise	-11395
▁agenda	-11396
▁analys	-11397
▁apocry	-11398
▁applic	-11399
UAE	-11400
ega	-11401
eets	-11402
egal	-11403
orff	-11404
▁(3,	-11405
▁Add	-11406
▁Ant	-11407
▁Boy	-11408
▁Lev	-11409
▁Suk	-11410
album	-11411
owski	-11412
vivor	-11413
▁Acap	-11414
▁Anat	-11415
▁Anth	-11416
▁Dile	-11417
▁NPUs	-11418
▁Seen	-11419
▁Text	-11420
▁Vega	-11421
▁Wild	-11422
▁boys	-11423
▁nutt	-11424
▁sket	-11425
makers	-11426
olarly	-11427
samyak	-11428
▁(1983	-11429
▁1990.	-11430
▁1993,	-11431
▁2021"	-11432
▁Alive	-11433
▁Coney	-11434
▁Defic	-11435
▁Globe	-11436
▁Going	-11437
▁Rings	-11438
▁Theft	-11439
▁Total	-11440
▁accum	-11441
▁backd	-11442
▁cater	-11443
▁prote	-11444
▁right	-11445
▁shows	-11446
forward	-11447
igrated	-11448
▁1992),	-11449
▁Dileep	-11450
▁Kamika	-11451
▁asking	-11452
▁assump	-11453
▁blends	-11454
▁bootst	-11455
▁breach	-11456
▁bridge	-11457
▁brough	-11458
▁budget	-11459
▁cities	-11460
▁coined	-11461
▁confid	-11462
▁conjun	-11463
▁connot	-11464
▁conspi	-11465
▁corpus	-11466
▁corres	-11467
▁cotton	-11468
▁depend	-11469
▁discre	-11470
▁divers	-11471
▁eighth	-11472
▁emails	-11473
▁empire	-11474
▁encaps	-11475
▁exists	-11476
▁extend	-11477
▁figure	-11478
▁finger	-11479
▁floods	-11480
▁format	-11481
▁fundam	-11482
▁google	-11483
▁guests	-11484
▁habits	-11485
▁halluc	-11486
▁heated	-11487
▁herald	-11488
▁hibern	-11489
▁imposs	-11490
▁incons	-11491
▁indist	-11492
▁inform	-11493
▁intent	-11494
▁killed	-11495
▁leased	-11496
▁linear	-11497
▁louder	-11498
▁markup	-11499
762	-11500
Ill	-11501
MEG	-11502
NTE	-11503
typ	-11504
7629	-11505
Iron	-11506
Neil	-11507
UNEP	-11508
happ	-11509
kley	-11510
ofox	-11511
otte	-11512
rons	-11513
tely	-11514
▁10)	-11515
▁166	-11516
▁Tao	-11517
▁bio	-11518
-2019	-11519
HENTE	-11520
ataka	-11521
ectiv	-11522
iotic	-11523
rison	-11524
sense	-11525
▁Asha	-11526
▁Base	-11527
▁Bena	-11528
▁Born	-11529
▁Eche	-11530
▁IAPR	-11531
▁Jake	-11532
▁Math	-11533
▁Seek	-11534
▁Spez	-11535
▁Tied	-11536
▁Torn	-11537
▁Wake	-11538
▁adds	-11539
▁blag	-11540
▁fake	-11541
▁hell	-11542
▁solo	-11543
▁twin	-11544
▁verd	-11545
077629	-11546
Illust	-11547
ectiva	-11548
entity	-11549
erofox	-11550
puting	-11551
▁2010)	-11552
▁Newer	-11553
▁Newst	-11554
▁Those	-11555
▁gonna	-11556
▁grown	-11557
▁preem	-11558
▁tends	-11559
▁uncle	-11560
▁vocal	-11561
▁wines	-11562
chitect	-11563
insight	-11564
ularies	-11565
▁Echegu	-11566
▁Miller	-11567
▁Spezio	-11568
▁THENTE	-11569
▁arrang	-11570
▁decide	-11571
▁melody	-11572
▁milest	-11573
▁mostly	-11574
▁nearby	-11575
▁neurom	-11576
▁notice	-11577
▁occult	-11578
▁onsite	-11579
▁operat	-11580
▁passed	-11581
▁positi	-11582
▁prints	-11583
▁priori	-11584
▁protoc	-11585
▁proven	-11586
▁purple	-11587
▁pushed	-11588
▁puzzle	-11589
▁qualit	-11590
▁raises	-11591
▁recall	-11592
▁recent	-11593
▁redist	-11594
▁regime	-11595
▁region	-11596
▁regist	-11597
▁relate	-11598
▁resear	-11599
max	-11600
▁41	-11601
▁42	-11602
Sons	-11603
ctil	-11604
ilty	-11605
ulty	-11606
▁400	-11607
▁Flu	-11608
▁Slu	-11609
▁Ush	-11610
▁bib	-11611
After	-11612
emark	-11613
tisse	-11614
tonio	-11615
ynold	-11616
▁1986	-11617
▁1987	-11618
▁4:30	-11619
▁Halo	-11620
▁Mode	-11621
▁Rish	-11622
▁dash	-11623
▁goes	-11624
▁mone	-11625
▁sanc	-11626
awning	-11627
eopoli	-11628
proper	-11629
urable	-11630
ynolds	-11631
▁1995.	-11632
▁Medal	-11633
▁Rishi	-11634
▁Sluga	-11635
▁Spell	-11636
▁Spike	-11637
▁Swiss	-11638
▁Where	-11639
▁aired	-11640
▁aware	-11641
▁caugh	-11642
▁color	-11643
▁congr	-11644
▁outer	-11645
▁reput	-11646
▁secre	-11647
Portugu	-11648
elsinki	-11649
entials	-11650
ftiness	-11651
onsible	-11652
percept	-11653
thiness	-11654
▁(2000)	-11655
▁2020).	-11656
▁Fluent	-11657
▁Groove	-11658
▁Kramer	-11659
▁Simple	-11660
▁biased	-11661
▁caught	-11662
▁duties	-11663
▁guilty	-11664
▁inline	-11665
▁manage	-11666
▁resign	-11667
▁rising	-11668
▁ruined	-11669
▁sensor	-11670
▁server	-11671
▁shoots	-11672
▁simple	-11673
▁slated	-11674
▁sleeve	-11675
▁spacef	-11676
▁stable	-11677
▁stance	-11678
▁strict	-11679
▁submod	-11680
▁subtle	-11681
▁suburb	-11682
▁summar	-11683
▁swarms	-11684
▁tested	-11685
▁thanks	-11686
▁theirs	-11687
▁themed	-11688
▁toward	-11689
▁trusts	-11690
▁unfair	-11691
▁varied	-11692
▁vendor	-11693
▁voting	-11694
▁warned	-11695
▁whiche	-11696
▁wished	-11697
▁writes	-11698
-07211-4	-11699
kya	-11700
ICML	-11701
Russ	-11702
hyth	-11703
prot	-11704
ugal	-11705
▁3.9	-11706
▁MBA	-11707
airie	-11708
akhri	-11709
anned	-11710
chews	-11711
elfth	-11712
oldas	-11713
rishn	-11714
tiles	-11715
unkya	-11716
video	-11717
▁Arms	-11718
▁Cpro	-11719
▁Dise	-11720
▁Enab	-11721
▁JPEG	-11722
▁Yann	-11723
▁Zain	-11724
▁doub	-11725
▁says	-11726
Future	-11727
ensate	-11728
future	-11729
ionals	-11730
raphic	-11731
rishna	-11732
uously	-11733
▁1985,	-11734
▁1995,	-11735
▁Accel	-11736
▁Aires	-11737
▁Annie	-11738
▁Incre	-11739
▁Mason	-11740
▁Param	-11741
▁Schne	-11742
▁diary	-11743
▁marks	-11744
▁rhyth	-11745
▁tyran	-11746
Russian	-11747
algists	-11748
finance	-11749
stadter	-11750
▁Apples	-11751
▁Fakhri	-11752
▁Inspec	-11753
▁Kement	-11754
▁Matter	-11755
▁Replay	-11756
▁Yoldas	-11757
▁absent	-11758
▁bodyen	-11759
▁closer	-11760
▁estate	-11761
▁incred	-11762
▁merged	-11763
▁owners	-11764
▁relies	-11765
▁shined	-11766
1143844.	-11767
37284-11	-11768
Business	-11769
Director	-11770
February	-11771
Graffiti	-11772
Minister	-11773
Mitchell	-11774
Question	-11775
Removing	-11776
Whenever	-11777
abortion	-11778
adaptive	-11779
administ	-11780
ancement	-11781
aphysics	-11782
arnataka	-11783
ashioned	-11784
askforce	-11785
atamaran	-11786
avartika	-11787
ayashida	-11788
complete	-11789
ctilious	-11790
delkader	-11791
donistic	-11792
embering	-11793
enchmark	-11794
encyclop	-11795
enhanced	-11796
eningrad	-11797
escovitz	-11798
founding	-11799
1994	-11800
GPAI	-11801
crow	-11802
help	-11803
mful	-11804
ospa	-11805
teer	-11806
week	-11807
Tolok	-11808
erful	-11809
given	-11810
▁4:03	-11811
▁Brow	-11812
▁Greg	-11813
▁Jigs	-11814
▁Mosk	-11815
▁Qure	-11816
▁Rune	-11817
▁Shik	-11818
▁Show	-11819
▁folk	-11820
akness	-11821
ectful	-11822
finite	-11823
nessey	-11824
oughly	-11825
ractor	-11826
▁1987.	-11827
▁2039.	-11828
▁Games	-11829
▁Given	-11830
▁VisAD	-11831
▁actor	-11832
▁adhoc	-11833
▁armor	-11834
▁guest	-11835
▁lived	-11836
▁upgra	-11837
-262-03	-11838
82020).	-11839
January	-11840
ichelle	-11841
▁50,000	-11842
▁CAMPUS	-11843
▁Jigsaw	-11844
▁Kinosh	-11845
▁Rowles	-11846
▁Tomasz	-11847
▁geospa	-11848
▁multin	-11849
▁posted	-11850
Tolokers	-11851
aknesses	-11852
founders	-11853
humanism	-11854
ientated	-11855
indingan	-11856
irtation	-11857
iverpool	-11858
izations	-11859
lishment	-11860
manently	-11861
mathfrak	-11862
msmässan	-11863
notators	-11864
numbered	-11865
ognizing	-11866
ointment	-11867
ominated	-11868
onialism	-11869
ontinued	-11870
orriente	-11871
outcomes	-11872
porarily	-11873
possibly	-11874
powering	-11875
pplement	-11876
products	-11877
pursuing	-11878
rastruct	-11879
rational	-11880
released	-11881
rowdfund	-11882
ructions	-11883
subtitle	-11884
terricht	-11885
tilising	-11886
▁	-11887
e	-11888
i	-11889
a	-11890
n	-11891
t	-11892
o	-11893
r	-11894
s	-11895
l	-11896
c	-11897
d	-11898
h	-11899
u	-11900
m	-11901
g	-11902
f	-11903
p	-11904
y	-11905
,	-11906
b	-11907
w	-11908
.	-11909
v	-11910
A	-11911
I	-11912
k	-11913
0	-11914
2	-11915
S	-11916
T	-11917
1	-11918
C	-11919
-	-11920
M	-11921
P	-11922
R	-11923
"	-11924
x	-11925
E	-11926
B	-11927
D	-11928
(	-11929
)	-11930
9	-11931
H	-11932
O	-11933
G	-11934
F	-11935
L	-11936
U	-11937
'	-11938
J	-11939
W	-11940
N	-11941
3	-11942
:	-11943
z	-11944
j	-11945
4	-11946
5	-11947
8	-11948
7	-11949
q	-11950
6	-11951
V	-11952
K	-11953
Y	-11954
;	-11955
Q	-11956
Z	-11957
X	-11958
_	-11959
é	-11960
愛	-11961
!	-11962
ا	-11963
?	-11964
ل	-11965
梨	-11966
à	-11967
ó	-11968
د	-11969
و	-11970
理	-11971
á	-11972
י	-11973
ت	-11974
ع	-11975
م	-11976
智	-11977
木	-11978
ì	-11979
ù	-11980
ō	-11981
а	-11982
ق	-11983
ي	-11984
あ	-11985
い	-11986
り	-11987
川	-11988
能	-11989
里	-11990
É	-11991
Ü	-11992
ä	-11993
ě	-11994
ī	-11995
